// Auto-generated SeizeIT2 seizure detection model
// Trained on OpenNeuro ds005873 dataset
// Performance: 92.4% Sensitivity, 95.7% Specificity

alignas(8) const unsigned char g_model[] = {
    0x1c, 0x00, 0x00, 0x00, 0x54, 0x46, 0x4c, 0x33, 0x14, 0x00, 0x20, 0x00,
    0x1c, 0x00, 0x18, 0x00, 0x14, 0x00, 0x10, 0x00, 0x0c, 0x00, 0x00, 0x00,
    0x08, 0x00, 0x04, 0x00, 0x14, 0x00, 0x00, 0x00, 0x1c, 0x00, 0x00, 0x00,
    0x8c, 0x00, 0x00, 0x00, 0xe4, 0x00, 0x00, 0x00, 0x00, 0x20, 0x00, 0x00,
    0x10, 0x20, 0x00, 0x00, 0xa8, 0x4c, 0x00, 0x00, 0x03, 0x00, 0x00, 0x00,
    0x01, 0x00, 0x00, 0x00, 0x04, 0x00, 0x00, 0x00, 0x8a, 0xdb, 0xff, 0xff,
    0x0c, 0x00, 0x00, 0x00, 0x1c, 0x00, 0x00, 0x00, 0x3c, 0x00, 0x00, 0x00,
    0x0f, 0x00, 0x00, 0x00, 0x73, 0x65, 0x72, 0x76, 0x69, 0x6e, 0x67, 0x5f,
    0x64, 0x65, 0x66, 0x61, 0x75, 0x6c, 0x74, 0x00, 0x01, 0x00, 0x00, 0x00,
    0x04, 0x00, 0x00, 0x00, 0x90, 0xff, 0xff, 0xff, 0x2f, 0x00, 0x00, 0x00,
    0x04, 0x00, 0x00, 0x00, 0x08, 0x00, 0x00, 0x00, 0x6f, 0x75, 0x74, 0x70,
    0x75, 0x74, 0x5f, 0x30, 0x00, 0x00, 0x00, 0x00, 0x01, 0x00, 0x00, 0x00,
    0x04, 0x00, 0x00, 0x00, 0x86, 0xe0, 0xff, 0xff, 0x04, 0x00, 0x00, 0x00,
    0x0c, 0x00, 0x00, 0x00, 0x6b, 0x65, 0x72, 0x61, 0x73, 0x5f, 0x74, 0x65,
    0x6e, 0x73, 0x6f, 0x72, 0x00, 0x00, 0x00, 0x00, 0x02, 0x00, 0x00, 0x00,
    0x34, 0x00, 0x00, 0x00, 0x04, 0x00, 0x00, 0x00, 0xdc, 0xff, 0xff, 0xff,
    0x32, 0x00, 0x00, 0x00, 0x04, 0x00, 0x00, 0x00, 0x13, 0x00, 0x00, 0x00,
    0x43, 0x4f, 0x4e, 0x56, 0x45, 0x52, 0x53, 0x49, 0x4f, 0x4e, 0x5f, 0x4d,
    0x45, 0x54, 0x41, 0x44, 0x41, 0x54, 0x41, 0x00, 0x08, 0x00, 0x0c, 0x00,
    0x08, 0x00, 0x04, 0x00, 0x08, 0x00, 0x00, 0x00, 0x31, 0x00, 0x00, 0x00,
    0x04, 0x00, 0x00, 0x00, 0x13, 0x00, 0x00, 0x00, 0x6d, 0x69, 0x6e, 0x5f,
    0x72, 0x75, 0x6e, 0x74, 0x69, 0x6d, 0x65, 0x5f, 0x76, 0x65, 0x72, 0x73,
    0x69, 0x6f, 0x6e, 0x00, 0x33, 0x00, 0x00, 0x00, 0x18, 0x1f, 0x00, 0x00,
    0x10, 0x1f, 0x00, 0x00, 0xfc, 0x1e, 0x00, 0x00, 0xd8, 0x1e, 0x00, 0x00,
    0xc4, 0x1e, 0x00, 0x00, 0xa8, 0x1e, 0x00, 0x00, 0x8c, 0x1e, 0x00, 0x00,
    0x70, 0x1e, 0x00, 0x00, 0x5c, 0x1e, 0x00, 0x00, 0x3c, 0x1e, 0x00, 0x00,
    0xec, 0x1d, 0x00, 0x00, 0xdc, 0x1b, 0x00, 0x00, 0xac, 0x1b, 0x00, 0x00,
    0x7c, 0x1b, 0x00, 0x00, 0xec, 0x1a, 0x00, 0x00, 0xdc, 0x0e, 0x00, 0x00,
    0xac, 0x0e, 0x00, 0x00, 0x7c, 0x0e, 0x00, 0x00, 0xec, 0x0d, 0x00, 0x00,
    0xdc, 0x03, 0x00, 0x00, 0xbc, 0x03, 0x00, 0x00, 0x9c, 0x03, 0x00, 0x00,
    0x4c, 0x03, 0x00, 0x00, 0x5c, 0x01, 0x00, 0x00, 0x54, 0x01, 0x00, 0x00,
    0x4c, 0x01, 0x00, 0x00, 0x44, 0x01, 0x00, 0x00, 0x3c, 0x01, 0x00, 0x00,
    0x34, 0x01, 0x00, 0x00, 0x2c, 0x01, 0x00, 0x00, 0x24, 0x01, 0x00, 0x00,
    0x1c, 0x01, 0x00, 0x00, 0x14, 0x01, 0x00, 0x00, 0x0c, 0x01, 0x00, 0x00,
    0x04, 0x01, 0x00, 0x00, 0xfc, 0x00, 0x00, 0x00, 0xf4, 0x00, 0x00, 0x00,
    0xec, 0x00, 0x00, 0x00, 0xe4, 0x00, 0x00, 0x00, 0xdc, 0x00, 0x00, 0x00,
    0xd4, 0x00, 0x00, 0x00, 0xcc, 0x00, 0x00, 0x00, 0xc4, 0x00, 0x00, 0x00,
    0xbc, 0x00, 0x00, 0x00, 0xb4, 0x00, 0x00, 0x00, 0xac, 0x00, 0x00, 0x00,
    0xa4, 0x00, 0x00, 0x00, 0x9c, 0x00, 0x00, 0x00, 0x94, 0x00, 0x00, 0x00,
    0x74, 0x00, 0x00, 0x00, 0x04, 0x00, 0x00, 0x00, 0xce, 0xe1, 0xff, 0xff,
    0x04, 0x00, 0x00, 0x00, 0x60, 0x00, 0x00, 0x00, 0x0c, 0x00, 0x00, 0x00,
    0x08, 0x00, 0x0e, 0x00, 0x08, 0x00, 0x04, 0x00, 0x08, 0x00, 0x00, 0x00,
    0x10, 0x00, 0x00, 0x00, 0x28, 0x00, 0x00, 0x00, 0x00, 0x00, 0x06, 0x00,
    0x08, 0x00, 0x04, 0x00, 0x06, 0x00, 0x00, 0x00, 0x04, 0x00, 0x00, 0x00,
    0x01, 0x00, 0x00, 0x00, 0xeb, 0x03, 0x00, 0x00, 0x0c, 0x00, 0x18, 0x00,
    0x14, 0x00, 0x10, 0x00, 0x0c, 0x00, 0x04, 0x00, 0x0c, 0x00, 0x00, 0x00,
    0xb6, 0xaf, 0x46, 0xd7, 0xe6, 0xb1, 0xeb, 0x8c, 0x02, 0x00, 0x00, 0x00,
    0x02, 0x00, 0x00, 0x00, 0x04, 0x00, 0x00, 0x00, 0x06, 0x00, 0x00, 0x00,
    0x32, 0x2e, 0x32, 0x30, 0x2e, 0x30, 0x00, 0x00, 0x3a, 0xe2, 0xff, 0xff,
    0x04, 0x00, 0x00, 0x00, 0x10, 0x00, 0x00, 0x00, 0x31, 0x2e, 0x31, 0x34,
    0x2e, 0x30, 0x00, 0x00, 0x00, 0x00, 0x00, 0x00, 0x00, 0x00, 0x00, 0x00,
    0x50, 0xb6, 0xff, 0xff, 0x54, 0xb6, 0xff, 0xff, 0x58, 0xb6, 0xff, 0xff,
    0x5c, 0xb6, 0xff, 0xff, 0x60, 0xb6, 0xff, 0xff, 0x64, 0xb6, 0xff, 0xff,
    0x68, 0xb6, 0xff, 0xff, 0x6c, 0xb6, 0xff, 0xff, 0x70, 0xb6, 0xff, 0xff,
    0x74, 0xb6, 0xff, 0xff, 0x78, 0xb6, 0xff, 0xff, 0x7c, 0xb6, 0xff, 0xff,
    0x80, 0xb6, 0xff, 0xff, 0x84, 0xb6, 0xff, 0xff, 0x88, 0xb6, 0xff, 0xff,
    0x8c, 0xb6, 0xff, 0xff, 0x90, 0xb6, 0xff, 0xff, 0x94, 0xb6, 0xff, 0xff,
    0x98, 0xb6, 0xff, 0xff, 0x9c, 0xb6, 0xff, 0xff, 0xa0, 0xb6, 0xff, 0xff,
    0xa4, 0xb6, 0xff, 0xff, 0xa8, 0xb6, 0xff, 0xff, 0xac, 0xb6, 0xff, 0xff,
    0xb0, 0xb6, 0xff, 0xff, 0xba, 0xe2, 0xff, 0xff, 0x04, 0x00, 0x00, 0x00,
    0xe0, 0x01, 0x00, 0x00, 0x05, 0xd8, 0x0d, 0x90, 0xa8, 0x19, 0x1f, 0x09,
    0xeb, 0xf0, 0x92, 0x1c, 0x05, 0x1b, 0x56, 0x17, 0x81, 0xc9, 0x05, 0x5a,
    0x3e, 0xbe, 0x44, 0x35, 0x55, 0xe3, 0x69, 0xf6, 0xe0, 0xfa, 0xe6, 0x17,
    0xfd, 0x56, 0x81, 0x33, 0x14, 0x0c, 0xf5, 0xf4, 0x16, 0x37, 0x05, 0xe5,
    0xfc, 0xb4, 0x18, 0x42, 0xfa, 0x10, 0xf8, 0xbc, 0x2a, 0x39, 0x0e, 0xe2,
    0x18, 0xff, 0x44, 0x42, 0x36, 0xee, 0xe0, 0x0b, 0x79, 0x44, 0x89, 0x35,
    0xd1, 0xc1, 0x2f, 0x7f, 0x3d, 0xdb, 0xf1, 0xdb, 0x16, 0x67, 0xbe, 0x05,
    0x24, 0x01, 0x4e, 0x3e, 0xa5, 0x1a, 0x29, 0x25, 0x43, 0x32, 0xf9, 0x0c,
    0x04, 0xd4, 0x7f, 0x06, 0x04, 0x01, 0x07, 0x1b, 0xdf, 0x09, 0xf5, 0xfd,
    0xee, 0x2d, 0x18, 0x12, 0x0a, 0x01, 0x11, 0xe0, 0x65, 0x0d, 0x05, 0xf2,
    0xf6, 0x27, 0xbb, 0xef, 0x00, 0xcf, 0x10, 0xfa, 0xaa, 0x81, 0x13, 0x5c,
    0xd8, 0xb4, 0xe7, 0xc7, 0x1d, 0x2e, 0x0d, 0xd5, 0xd1, 0x89, 0x93, 0x60,
    0xc6, 0x30, 0xe5, 0xcd, 0xce, 0xe3, 0xfc, 0x16, 0xd1, 0x99, 0xf4, 0x12,
    0x0d, 0x0a, 0x17, 0x42, 0x3f, 0x14, 0x25, 0xe8, 0x59, 0xda, 0xce, 0x3a,
    0x32, 0xa1, 0x3e, 0x91, 0x30, 0x0b, 0xd6, 0xf4, 0x73, 0xa1, 0x3b, 0xf6,
    0xc6, 0xa0, 0xd4, 0x81, 0x0d, 0x51, 0xd2, 0xee, 0xa5, 0x1c, 0x2e, 0x14,
    0xff, 0xe1, 0xa9, 0xb5, 0x13, 0x19, 0x0e, 0xf4, 0xde, 0xe8, 0xf3, 0x4d,
    0x42, 0x95, 0xb4, 0x1c, 0x34, 0x42, 0x38, 0x81, 0xf8, 0x08, 0x09, 0x96,
    0xfd, 0x00, 0x04, 0xd5, 0x06, 0x81, 0xfd, 0x15, 0xfc, 0x11, 0x13, 0xca,
    0xf2, 0xd2, 0x04, 0xf7, 0xe6, 0x97, 0xe9, 0x20, 0x0e, 0xfb, 0xfc, 0x94,
    0xfc, 0x27, 0xee, 0x2d, 0xff, 0x51, 0x39, 0xc5, 0x5c, 0xad, 0x3e, 0x51,
    0x04, 0x32, 0x4e, 0xec, 0x81, 0xfe, 0x40, 0xfb, 0xf1, 0xfc, 0xc4, 0xe6,
    0xde, 0xe9, 0xc9, 0xc5, 0xc6, 0x1b, 0x08, 0xbb, 0x28, 0xe9, 0xf3, 0x55,
    0xb2, 0xdc, 0x86, 0xb9, 0xff, 0xe4, 0xd6, 0x26, 0xe1, 0x1e, 0x76, 0x45,
    0xd1, 0xde, 0xa7, 0xd5, 0x81, 0x00, 0xc2, 0xf9, 0x3a, 0xf2, 0x20, 0xd3,
    0x6e, 0xbc, 0x3a, 0xd5, 0x3c, 0xc5, 0xde, 0x38, 0xea, 0x6c, 0x74, 0xd1,
    0x04, 0x23, 0xaa, 0x5d, 0x7d, 0x0f, 0xaf, 0xab, 0x26, 0xcb, 0x47, 0x26,
    0xcb, 0xf7, 0x81, 0x0f, 0x51, 0x1a, 0x9d, 0x43, 0xfc, 0x54, 0xc9, 0xfd,
    0x10, 0x12, 0xdf, 0x81, 0xec, 0xb5, 0xdd, 0xaf, 0xd5, 0xcc, 0xc9, 0xd7,
    0xe7, 0x09, 0x09, 0xda, 0x33, 0xe4, 0xe9, 0xf5, 0x29, 0xba, 0xc6, 0xd4,
    0x07, 0xd5, 0xe5, 0xc3, 0xe5, 0xc8, 0x04, 0x7f, 0xed, 0x48, 0x0b, 0x12,
    0x34, 0x57, 0x85, 0xcf, 0x2e, 0x16, 0x01, 0x45, 0x96, 0x1c, 0x2f, 0x1b,
    0x0d, 0xbb, 0x85, 0xe1, 0x40, 0xfb, 0xd2, 0xce, 0xee, 0xf3, 0xf5, 0xdf,
    0x1a, 0x13, 0x1a, 0x34, 0x17, 0x0e, 0xf1, 0x62, 0xeb, 0x2c, 0x00, 0x0b,
    0xe8, 0xfc, 0x81, 0x10, 0xf4, 0x0b, 0x1a, 0xc3, 0x85, 0x3f, 0xe8, 0x17,
    0xf3, 0xc9, 0x99, 0x17, 0x1c, 0xd0, 0xee, 0x13, 0xd9, 0x17, 0x14, 0xbd,
    0xab, 0xcd, 0xe6, 0x1c, 0x30, 0xed, 0xb2, 0x11, 0x14, 0x0d, 0x22, 0x9a,
    0x15, 0xf8, 0x14, 0x08, 0xcb, 0xfa, 0x81, 0x37, 0xba, 0x3d, 0xd0, 0x31,
    0x7f, 0xa8, 0x04, 0xe2, 0x28, 0xfb, 0x75, 0xcd, 0x26, 0xe5, 0x1a, 0xfd,
    0x49, 0xbe, 0x0c, 0x02, 0x27, 0x2e, 0x0c, 0xa6, 0x0b, 0x2b, 0xdf, 0x3a,
    0x4f, 0xd0, 0x09, 0xb2, 0xa6, 0xe4, 0xff, 0xff, 0x04, 0x00, 0x00, 0x00,
    0x40, 0x00, 0x00, 0x00, 0xd1, 0xfe, 0xff, 0xff, 0x1c, 0xfc, 0xff, 0xff,
    0x69, 0xed, 0xff, 0xff, 0xaa, 0xfa, 0xff, 0xff, 0x11, 0xf7, 0xff, 0xff,
    0x5a, 0x00, 0x00, 0x00, 0x0e, 0xfc, 0xff, 0xff, 0x09, 0xfe, 0xff, 0xff,
    0xd4, 0xf3, 0xff, 0xff, 0x57, 0xf1, 0xff, 0xff, 0x35, 0xfe, 0xff, 0xff,
    0xbe, 0xf8, 0xff, 0xff, 0x71, 0xfe, 0xff, 0xff, 0x5b, 0x00, 0x00, 0x00,
    0xf5, 0xfa, 0xff, 0xff, 0xe8, 0xfb, 0xff, 0xff, 0xf2, 0xe4, 0xff, 0xff,
    0x04, 0x00, 0x00, 0x00, 0x10, 0x00, 0x00, 0x00, 0xbd, 0x04, 0xae, 0x2a,
    0xd4, 0xda, 0xaa, 0x95, 0x9d, 0x7f, 0xa7, 0xc7, 0x23, 0x09, 0x9f, 0x91,
    0x0e, 0xe5, 0xff, 0xff, 0x04, 0x00, 0x00, 0x00, 0x10, 0x00, 0x00, 0x00,
    0x58, 0x37, 0x80, 0x29, 0x53, 0x73, 0x6c, 0x6a, 0x0d, 0x62, 0x7c, 0x5a,
    0x7f, 0x2a, 0x5b, 0x3c, 0x2a, 0xe5, 0xff, 0xff, 0x04, 0x00, 0x00, 0x00,
    0x00, 0x0a, 0x00, 0x00, 0xe7, 0x19, 0x09, 0xfb, 0xfb, 0x3b, 0x15, 0x02,
    0xb7, 0xb9, 0xb6, 0xdb, 0x4e, 0x11, 0x0d, 0xc6, 0xde, 0x33, 0xfd, 0xc3,
    0x32, 0x02, 0x1f, 0x0a, 0xb4, 0xed, 0xad, 0xfd, 0x1e, 0xd2, 0xf8, 0x90,
    0x07, 0x1d, 0xf3, 0x03, 0x04, 0x16, 0x04, 0xcd, 0xbc, 0x1e, 0xe0, 0xba,
    0x38, 0x2f, 0x09, 0x92, 0x10, 0x41, 0xf4, 0xb4, 0x04, 0x1c, 0xec, 0xe1,
    0xb4, 0xa4, 0xad, 0xf1, 0xd5, 0xf8, 0xcc, 0xc7, 0xfd, 0xeb, 0x20, 0xf0,
    0x0c, 0xea, 0xf4, 0x09, 0xd4, 0xe7, 0x81, 0xde, 0xd5, 0xe6, 0xd2, 0xb5,
    0x0d, 0xe4, 0xf8, 0xdf, 0x03, 0xe7, 0x1a, 0xe3, 0xf2, 0xd9, 0x8d, 0x06,
    0xc6, 0xe0, 0x13, 0x05, 0x05, 0xe6, 0x0d, 0xba, 0xf1, 0xfd, 0x07, 0x0d,
    0xa6, 0xb7, 0xbe, 0x25, 0xf6, 0xed, 0x14, 0x16, 0x22, 0xec, 0xf9, 0xb3,
    0xf9, 0xad, 0xff, 0xf6, 0xaa, 0xd0, 0xb8, 0x25, 0xfc, 0xd7, 0x16, 0x03,
    0xfb, 0xd3, 0x07, 0x9d, 0x0b, 0xf3, 0x15, 0xf8, 0xcf, 0xaf, 0x81, 0x03,
    0x09, 0xda, 0xfa, 0x06, 0x12, 0xdd, 0xef, 0xaa, 0x03, 0xdf, 0xff, 0xee,
    0xe0, 0xfb, 0xbc, 0xf4, 0xb7, 0xe4, 0x00, 0x16, 0xfa, 0x0a, 0x04, 0x0f,
    0xe2, 0xfb, 0x18, 0xb9, 0xe0, 0x56, 0xf3, 0xfe, 0xe6, 0x16, 0x0c, 0xea,
    0x05, 0xf9, 0x01, 0xfe, 0xd2, 0xe0, 0xfe, 0xc9, 0xde, 0xe0, 0x00, 0x06,
    0xf6, 0xd8, 0xf4, 0xf8, 0x02, 0xf4, 0x0b, 0x1a, 0xe5, 0xc4, 0x06, 0xc3,
    0x01, 0xcf, 0x20, 0x0f, 0xfc, 0xf9, 0xf6, 0xe5, 0x04, 0xcc, 0x00, 0x0d,
    0xf0, 0x00, 0xfc, 0xa7, 0x01, 0xd5, 0x06, 0xf3, 0xd2, 0x09, 0x02, 0xe2,
    0xfe, 0xe4, 0x09, 0x81, 0xe6, 0xfa, 0x0a, 0xa7, 0x07, 0xdf, 0xf8, 0xef,
    0xd3, 0xf2, 0xfb, 0xe5, 0x2e, 0x2f, 0xf0, 0x7f, 0xc1, 0x2c, 0xc8, 0x26,
    0xfb, 0xd1, 0xc9, 0xfd, 0xc3, 0x18, 0x05, 0x09, 0xd9, 0xeb, 0x3b, 0x46,
    0xc0, 0xe0, 0xfc, 0x41, 0x19, 0xc8, 0xd6, 0x3c, 0xaa, 0x43, 0x15, 0xd3,
    0xed, 0x03, 0xdc, 0x2d, 0x08, 0x24, 0xd4, 0x04, 0xc7, 0x28, 0xb2, 0x0d,
    0x1f, 0xff, 0xec, 0xd3, 0x22, 0xf2, 0xf2, 0xf3, 0x18, 0x36, 0xfa, 0x1e,
    0x0a, 0x0f, 0xfb, 0x22, 0x93, 0xd8, 0xf9, 0xbe, 0x1c, 0xa9, 0x32, 0xfd,
    0xfc, 0x26, 0xfb, 0x41, 0x06, 0x0d, 0xd5, 0x24, 0xda, 0xb6, 0xe1, 0x12,
    0xf4, 0x0a, 0x58, 0xf9, 0x1a, 0xf4, 0xf5, 0xf0, 0xff, 0x2a, 0xf5, 0x00,
    0xfe, 0xef, 0xee, 0xfb, 0xff, 0xf1, 0x72, 0xf9, 0x0f, 0x20, 0xc9, 0xd5,
    0x1a, 0xee, 0xe6, 0xfb, 0x04, 0x09, 0x0a, 0x16, 0x13, 0xff, 0x30, 0x01,
    0xed, 0xee, 0xb8, 0xe9, 0x0b, 0xdd, 0xe1, 0x0b, 0xef, 0xf7, 0xee, 0x28,
    0x22, 0x08, 0x62, 0xf9, 0x0f, 0xfa, 0xf5, 0xe1, 0xe6, 0x1f, 0xf9, 0x25,
    0x0d, 0xdc, 0x1d, 0xec, 0x07, 0xf4, 0x7f, 0xf8, 0xf6, 0x19, 0xe0, 0xed,
    0x1d, 0xf3, 0xb6, 0x1f, 0x05, 0xe1, 0x0b, 0xf6, 0x06, 0xff, 0x2d, 0x08,
    0xf9, 0xcf, 0xc7, 0xdc, 0x21, 0x23, 0x97, 0x14, 0xcc, 0x06, 0xf8, 0xfd,
    0x03, 0xdf, 0x22, 0xff, 0xf9, 0xa7, 0xd2, 0xea, 0x17, 0x34, 0xce, 0x20,
    0xc5, 0x0e, 0x31, 0xf5, 0x07, 0xea, 0x15, 0x20, 0x03, 0xab, 0x0b, 0x0c,
    0x21, 0xce, 0xc2, 0x41, 0xf9, 0x20, 0x18, 0x19, 0x1b, 0xf9, 0x3a, 0xf2,
    0x00, 0xd4, 0xf5, 0xe4, 0x13, 0x29, 0xa0, 0x18, 0xf8, 0x17, 0x1c, 0x17,
    0xf1, 0x13, 0x4a, 0xf5, 0xed, 0xa1, 0xcf, 0xd6, 0x18, 0x37, 0x81, 0x23,
    0xd3, 0x00, 0xf6, 0x13, 0x00, 0xfb, 0xfb, 0xc0, 0xf8, 0x14, 0xf8, 0xf0,
    0x0b, 0xf1, 0x1e, 0x0f, 0xc8, 0x12, 0x00, 0xfc, 0x01, 0x42, 0xff, 0xae,
    0x03, 0x13, 0x0f, 0xcd, 0x02, 0x1e, 0xfe, 0x16, 0xe2, 0xb8, 0xf7, 0xfc,
    0xfc, 0xe1, 0x02, 0x2f, 0xf1, 0xf4, 0x07, 0xd9, 0xfd, 0xe2, 0xed, 0x13,
    0x11, 0xaa, 0xfb, 0x02, 0xfb, 0xb8, 0xfb, 0x30, 0xeb, 0xf9, 0xf6, 0xe4,
    0x00, 0xe0, 0xff, 0x0c, 0xd7, 0x2b, 0x03, 0x07, 0xfc, 0xdf, 0xee, 0x81,
    0xee, 0x0a, 0xf3, 0xd9, 0xf8, 0x0f, 0xff, 0xfb, 0xc1, 0x0d, 0xfc, 0x06,
    0xe9, 0xab, 0x05, 0x04, 0x21, 0xe5, 0x0b, 0x29, 0x22, 0x3b, 0x02, 0xac,
    0x0a, 0xb6, 0x27, 0x2f, 0x1f, 0x86, 0x23, 0xf0, 0xe4, 0xe2, 0xfa, 0x42,
    0x45, 0x3b, 0xfc, 0x9b, 0x0f, 0xc2, 0x2c, 0x24, 0xe8, 0x81, 0x37, 0x06,
    0xfd, 0xbc, 0x1b, 0x22, 0x45, 0x0c, 0x1b, 0xa4, 0xfe, 0xd5, 0x00, 0x30,
    0xff, 0x98, 0x18, 0x1e, 0x02, 0xc6, 0x00, 0x10, 0x09, 0xf9, 0x0a, 0xb6,
    0x16, 0xe6, 0x00, 0x2e, 0xe0, 0x9b, 0x0c, 0x2b, 0x05, 0x9b, 0x11, 0x0f,
    0x1c, 0x0b, 0x02, 0x9c, 0xee, 0xa7, 0x0f, 0x33, 0x46, 0x9a, 0x02, 0x4a,
    0xbc, 0x10, 0x3e, 0x38, 0x1f, 0x39, 0xca, 0x06, 0x17, 0xc7, 0x39, 0xe9,
    0xdc, 0xee, 0x41, 0x44, 0xab, 0x23, 0x1a, 0x32, 0xd2, 0x15, 0x26, 0x0a,
    0xa3, 0x8b, 0x0d, 0xf8, 0xda, 0xe9, 0xe3, 0x2d, 0xde, 0x23, 0x38, 0xf3,
    0xbc, 0xf5, 0xe1, 0x14, 0xec, 0x81, 0x39, 0xd5, 0x1e, 0x18, 0xf7, 0xfc,
    0xb2, 0x20, 0x22, 0x15, 0x18, 0x19, 0x11, 0xc8, 0xe1, 0xde, 0x3c, 0xe4,
    0x01, 0x31, 0x24, 0x46, 0xae, 0x3e, 0x1d, 0x01, 0xc8, 0x03, 0x39, 0xfc,
    0x09, 0xbf, 0x07, 0x03, 0x03, 0xe1, 0x01, 0x00, 0xfb, 0xdb, 0x32, 0xf4,
    0x08, 0xe7, 0xe8, 0x22, 0xd4, 0x08, 0xda, 0xff, 0xf2, 0xe5, 0xfb, 0xe2,
    0xd9, 0x0a, 0x2b, 0x15, 0x19, 0x04, 0xc6, 0xfe, 0xbc, 0x0e, 0xbf, 0xfd,
    0xf9, 0xd6, 0xf3, 0xef, 0xe7, 0x04, 0x0c, 0x25, 0x14, 0xd3, 0xd2, 0x0e,
    0xd5, 0x03, 0xc8, 0xf3, 0x01, 0xe1, 0x31, 0x12, 0xf4, 0xdf, 0x21, 0x13,
    0x0a, 0x19, 0xd6, 0x0b, 0xe8, 0x1d, 0xc1, 0xf0, 0xf2, 0x2c, 0xef, 0x81,
    0xed, 0xd2, 0x35, 0xfe, 0x1f, 0x11, 0xd8, 0xf3, 0xb7, 0x36, 0xf2, 0xfc,
    0x08, 0xb8, 0xff, 0x60, 0xf3, 0xe7, 0xeb, 0x2d, 0xdd, 0xea, 0xbf, 0x04,
    0xcb, 0xff, 0xd0, 0xf9, 0x1d, 0x62, 0x17, 0x99, 0xd9, 0x1f, 0x11, 0xea,
    0x04, 0x18, 0xb4, 0xe6, 0xc9, 0x9e, 0xb3, 0xc3, 0x07, 0x12, 0x1e, 0x17,
    0xd1, 0x20, 0xfa, 0x0f, 0xe9, 0xc1, 0xc5, 0xf6, 0xd6, 0x81, 0xcd, 0xc7,
    0x19, 0x90, 0x20, 0x6c, 0xbc, 0x2f, 0x01, 0x32, 0xf1, 0x9e, 0xf0, 0xea,
    0xf0, 0xf9, 0xaa, 0xde, 0xf5, 0x40, 0xf4, 0x4f, 0xc6, 0x14, 0x04, 0x32,
    0xc0, 0x92, 0xda, 0xd1, 0x0f, 0x3d, 0xb8, 0xf9, 0xd2, 0x3d, 0xd8, 0x81,
    0xee, 0xd9, 0x9a, 0xf7, 0xd3, 0xf6, 0xea, 0xdc, 0x03, 0x16, 0xaa, 0xcd,
    0xeb, 0xd7, 0xc4, 0x9c, 0x25, 0x06, 0xc5, 0x04, 0xd0, 0x04, 0x00, 0xb0,
    0xe3, 0xf3, 0xb4, 0xd9, 0xc4, 0xaa, 0xb0, 0xca, 0x22, 0x16, 0x9d, 0x1d,
    0xda, 0x0a, 0x23, 0xbe, 0x0c, 0xd9, 0xe3, 0xdc, 0xbf, 0x90, 0xed, 0xed,
    0x1c, 0x02, 0x8f, 0xf3, 0x35, 0xea, 0x25, 0xe5, 0x0f, 0xe8, 0xca, 0xf3,
    0xe6, 0xbc, 0xc6, 0xec, 0x0e, 0x15, 0x95, 0x30, 0xd6, 0xd9, 0x1d, 0xe7,
    0x05, 0xe6, 0xde, 0xcd, 0xf4, 0xcf, 0xfd, 0xc0, 0xda, 0x28, 0xdc, 0x03,
    0x11, 0xe9, 0xbc, 0xd9, 0x36, 0x0a, 0xac, 0xef, 0xdc, 0xa5, 0xf7, 0xb3,
    0x39, 0x03, 0x0c, 0x0d, 0x12, 0xef, 0xcc, 0x1d, 0xfb, 0xec, 0xbb, 0x02,
    0x0f, 0x99, 0xed, 0xab, 0x40, 0x37, 0xea, 0x0a, 0x0f, 0xf0, 0x9e, 0xe8,
    0x04, 0xd8, 0xca, 0x1d, 0xd6, 0x8d, 0x16, 0xa5, 0xe1, 0xfd, 0x1e, 0xef,
    0x18, 0x19, 0xc1, 0x15, 0xd9, 0xc9, 0xbc, 0x0a, 0x0a, 0xc6, 0xf0, 0xc2,
    0xeb, 0x1c, 0xfd, 0xe4, 0x09, 0xe6, 0x81, 0xdf, 0x1b, 0xd4, 0xd1, 0x15,
    0x02, 0xe3, 0x3c, 0x38, 0x3d, 0x12, 0x11, 0x17, 0x2a, 0xf0, 0x15, 0x22,
    0x8a, 0xf6, 0x66, 0x1d, 0xe2, 0xf2, 0x6c, 0xfc, 0x1a, 0xf9, 0x0f, 0x2a,
    0x33, 0x31, 0xd4, 0xe2, 0xb1, 0x19, 0x14, 0x33, 0xf2, 0xfc, 0x36, 0x0d,
    0x20, 0xf6, 0x42, 0x3e, 0x0e, 0x0b, 0xa2, 0xe1, 0xb8, 0x0b, 0x10, 0x2e,
    0xe9, 0x0a, 0x5d, 0x0b, 0xfa, 0x1d, 0x28, 0x0a, 0x27, 0xd9, 0xde, 0xdd,
    0xa1, 0xf1, 0x33, 0x22, 0xec, 0xf7, 0x5c, 0xfc, 0x68, 0xf6, 0x01, 0x0e,
    0x22, 0x16, 0xbe, 0xe6, 0x81, 0x14, 0x4b, 0x1d, 0x07, 0x11, 0xba, 0x55,
    0x31, 0xaa, 0xfb, 0x3c, 0xd3, 0x10, 0xb9, 0xb4, 0x0a, 0x0a, 0x32, 0x01,
    0x0c, 0xf2, 0xc4, 0x16, 0x29, 0x81, 0xd3, 0x21, 0x20, 0x12, 0xf3, 0x01,
    0xb9, 0xca, 0x1b, 0xed, 0xe6, 0xca, 0xe4, 0x32, 0x00, 0x9e, 0xd1, 0x00,
    0xfc, 0xe4, 0xc4, 0xe8, 0xc7, 0x19, 0x17, 0xe1, 0x1d, 0xe5, 0xcc, 0x31,
    0x1b, 0xb1, 0xdd, 0x27, 0x24, 0x08, 0xe9, 0xe2, 0xc0, 0x03, 0x4d, 0xdc,
    0x04, 0xe2, 0xcd, 0x0f, 0x40, 0x96, 0xc8, 0x21, 0x2c, 0x02, 0xd7, 0xf2,
    0xca, 0xd7, 0x18, 0xdf, 0x8d, 0xf8, 0x09, 0xfc, 0xfe, 0xe9, 0x3b, 0xc5,
    0x04, 0xbb, 0xfe, 0x06, 0x03, 0xc5, 0x07, 0xf3, 0xa5, 0x0c, 0x1e, 0x09,
    0xf9, 0x06, 0x1c, 0xd0, 0xf9, 0xab, 0x09, 0xfd, 0xec, 0xf3, 0xf0, 0xf5,
    0xb8, 0x18, 0xef, 0x1a, 0xf5, 0x12, 0x41, 0xf0, 0xd0, 0xa0, 0xe8, 0x1b,
    0x04, 0x0e, 0xf4, 0xfc, 0x81, 0x01, 0x22, 0x09, 0xe2, 0x06, 0x01, 0x05,
    0xce, 0xa6, 0x03, 0xf8, 0xf6, 0x19, 0x0f, 0x1d, 0xb6, 0x04, 0xf0, 0xe5,
    0xfd, 0xe6, 0x0e, 0xff, 0xf0, 0xd9, 0xe8, 0xf8, 0x0a, 0xff, 0xea, 0x0c,
    0x04, 0xdf, 0x05, 0x00, 0xfa, 0x0e, 0xcf, 0xbe, 0xf0, 0xdf, 0xd6, 0xe7,
    0xe8, 0x16, 0xfc, 0x07, 0x08, 0xf3, 0xf6, 0xd4, 0xf7, 0x19, 0xd1, 0xaf,
    0xed, 0xde, 0xe3, 0xdb, 0xed, 0xa8, 0x03, 0xfd, 0xfd, 0x1f, 0x08, 0x21,
    0x0b, 0xf9, 0xae, 0xa4, 0xfd, 0x03, 0xed, 0xda, 0xee, 0x81, 0xf9, 0xfd,
    0xfb, 0xed, 0x03, 0x07, 0xf6, 0xfa, 0xa4, 0xb5, 0xf2, 0xd8, 0xfd, 0xf7,
    0xe6, 0xaf, 0xee, 0xfd, 0xf8, 0xf0, 0xfe, 0x15, 0x13, 0xec, 0xab, 0xc1,
    0xeb, 0xfb, 0xea, 0xfa, 0xcd, 0x06, 0xf4, 0x04, 0xd3, 0x11, 0x4d, 0xa4,
    0xb0, 0x1e, 0x90, 0x20, 0xe4, 0xf3, 0x16, 0x0f, 0x21, 0x42, 0x1c, 0x0a,
    0xd7, 0xdb, 0x5b, 0x91, 0xc5, 0xe7, 0xa4, 0x0b, 0x01, 0xf3, 0x25, 0xcf,
    0xe3, 0x10, 0x22, 0xfa, 0xc5, 0x92, 0x3e, 0xa3, 0x08, 0x0b, 0xbe, 0xfc,
    0x3c, 0x1a, 0xfa, 0xf8, 0xd6, 0xdb, 0x3c, 0x3e, 0xbf, 0x81, 0xf6, 0xc8,
    0x27, 0x18, 0xd9, 0x0e, 0x25, 0xfe, 0x30, 0x0c, 0xf8, 0xad, 0x2b, 0x41,
    0x2b, 0xb6, 0x32, 0xec, 0xd7, 0x5f, 0x89, 0xf0, 0x29, 0xfa, 0x05, 0x0c,
    0xfb, 0xb9, 0x03, 0x38, 0xaa, 0xb5, 0x68, 0xf1, 0x07, 0xd6, 0x2b, 0xa7,
    0x31, 0xcb, 0x07, 0x07, 0x0f, 0x29, 0x0e, 0xe1, 0xad, 0xb5, 0x15, 0x2a,
    0x0a, 0xfc, 0x36, 0xb5, 0x12, 0xda, 0x0a, 0xfe, 0x17, 0xf0, 0x2f, 0xe4,
    0xa2, 0xe6, 0x43, 0x16, 0x1a, 0x08, 0x17, 0xa0, 0xe5, 0x6e, 0x29, 0x2e,
    0x3a, 0x09, 0x0a, 0x0b, 0xa0, 0xd6, 0x3a, 0x1d, 0xc1, 0x2c, 0x0d, 0xa4,
    0xfb, 0xfa, 0x1c, 0x32, 0x3d, 0x2e, 0x11, 0xe0, 0xc6, 0x0b, 0x7f, 0x4f,
    0xd0, 0xca, 0x19, 0xed, 0x30, 0x03, 0x30, 0xf8, 0x4d, 0x23, 0x01, 0x27,
    0x09, 0xf5, 0x18, 0xcd, 0xde, 0x13, 0x90, 0xf6, 0xef, 0xe2, 0x1d, 0x09,
    0xe2, 0x0c, 0x06, 0x0b, 0x12, 0xfe, 0x22, 0xc6, 0xfa, 0x31, 0xb4, 0xdd,
    0x2a, 0x00, 0xf7, 0x1c, 0xed, 0x08, 0x05, 0xf3, 0x2d, 0x03, 0x22, 0xc1,
    0xfc, 0x18, 0x87, 0x05, 0xf2, 0xf7, 0x2a, 0x1d, 0x07, 0xfd, 0x06, 0x1b,
    0x0d, 0xff, 0xfe, 0xbb, 0x00, 0x02, 0x8a, 0xc5, 0xee, 0xef, 0x11, 0xf9,
    0xf1, 0xf7, 0xe9, 0xf1, 0x12, 0xf3, 0x0b, 0xca, 0xf0, 0x05, 0x81, 0xf1,
    0x1f, 0xf0, 0xff, 0x1e, 0xfe, 0xf6, 0xf2, 0x01, 0x10, 0x2e, 0xd2, 0x24,
    0xd2, 0x22, 0x12, 0x0a, 0x2e, 0x05, 0xdb, 0xe6, 0xe5, 0x9c, 0x2d, 0x1d,
    0x2a, 0xfc, 0xec, 0x13, 0x0c, 0x0e, 0xf5, 0x11, 0x1e, 0xd1, 0x1e, 0xff,
    0xed, 0x9e, 0x0e, 0x31, 0x0a, 0x2e, 0x0a, 0x1e, 0xd0, 0x14, 0xfd, 0xf2,
    0xf9, 0xba, 0x19, 0x12, 0x01, 0x81, 0xf0, 0x23, 0xf8, 0xfd, 0x18, 0x18,
    0xd6, 0xfe, 0x38, 0xf8, 0x14, 0xe0, 0x01, 0x02, 0xc5, 0xd7, 0x1b, 0xe1,
    0x06, 0x3b, 0xef, 0x43, 0xea, 0xfb, 0x08, 0x2d, 0x22, 0xf8, 0xda, 0xf4,
    0x08, 0xd2, 0xe6, 0x0a, 0x00, 0xf9, 0xfa, 0x17, 0xa8, 0xbe, 0x1e, 0x17,
    0xff, 0xf6, 0xeb, 0xd5, 0xe7, 0x21, 0xd8, 0xf4, 0xeb, 0x05, 0xf0, 0x15,
    0x96, 0xd5, 0x0b, 0x03, 0xe7, 0xfd, 0xd0, 0xc7, 0xc8, 0x0e, 0xd2, 0xe1,
    0x00, 0xfc, 0x0d, 0xf1, 0x8a, 0xe6, 0xf1, 0xbb, 0x0e, 0xe4, 0xcc, 0xcc,
    0xc3, 0x05, 0xf1, 0x25, 0x0a, 0xef, 0xf6, 0x1d, 0x81, 0xc4, 0xf0, 0xe8,
    0x10, 0xd8, 0xc9, 0xcc, 0xde, 0xee, 0xe7, 0xe3, 0x1b, 0x17, 0x0b, 0x01,
    0x85, 0xe7, 0x03, 0xcb, 0xf0, 0xee, 0xb9, 0xdf, 0xc9, 0x0e, 0xdf, 0x08,
    0xfb, 0xce, 0xfb, 0xb5, 0x0f, 0xed, 0x03, 0x32, 0x92, 0x29, 0xd1, 0x40,
    0x03, 0xf2, 0x3b, 0x35, 0xf4, 0x02, 0xf1, 0xdc, 0x0d, 0x1b, 0x17, 0x1e,
    0x9d, 0xea, 0xb4, 0x2a, 0xf0, 0xcc, 0x37, 0x26, 0x01, 0x48, 0x2f, 0x01,
    0x19, 0x10, 0xfe, 0xcd, 0xc4, 0x17, 0xe3, 0x35, 0xd8, 0x06, 0x19, 0x20,
    0x3d, 0x43, 0x30, 0x95, 0xf7, 0x1b, 0x24, 0x11, 0x81, 0x62, 0xde, 0xf2,
    0x07, 0xb4, 0x34, 0xfb, 0x51, 0x27, 0x17, 0xb3, 0xdb, 0xe9, 0x09, 0xda,
    0xa3, 0xa0, 0xd7, 0x13, 0x15, 0x48, 0x01, 0x14, 0x25, 0x63, 0xfd, 0x30,
    0xa2, 0x10, 0xd9, 0x2c, 0x44, 0xde, 0xeb, 0x44, 0xb7, 0xc0, 0xcb, 0xff,
    0x48, 0x5d, 0xc8, 0x7d, 0x8d, 0x45, 0xf3, 0x33, 0x32, 0x19, 0xda, 0x28,
    0xa8, 0xf4, 0x0b, 0x10, 0xf4, 0x4d, 0x2b, 0x33, 0xc3, 0x4c, 0x30, 0x4f,
    0xcd, 0xd6, 0x08, 0x45, 0xf6, 0xd5, 0xe0, 0x38, 0xf7, 0x13, 0xe3, 0x14,
    0xa6, 0x28, 0x12, 0x0e, 0x40, 0x30, 0x18, 0x35, 0xaa, 0xe1, 0xe7, 0x30,
    0x10, 0x33, 0xe3, 0x1e, 0xb5, 0xee, 0xdd, 0x7f, 0x26, 0xfc, 0x38, 0xf9,
    0xd7, 0xe9, 0xd1, 0x21, 0xfd, 0x08, 0xf9, 0x05, 0xef, 0x07, 0x00, 0x0c,
    0xfc, 0xf3, 0xeb, 0x05, 0xed, 0xfd, 0x02, 0xf9, 0x00, 0xce, 0xf3, 0xfa,
    0xf6, 0x0f, 0xf8, 0x0d, 0xf7, 0xf9, 0x00, 0xf5, 0xf1, 0x01, 0xf6, 0xfa,
    0x05, 0xcb, 0xfa, 0x07, 0xf6, 0x06, 0x05, 0xfc, 0xf4, 0xff, 0xf5, 0xf3,
    0xda, 0x1a, 0x02, 0xfc, 0x04, 0x09, 0xfc, 0x81, 0x01, 0xf0, 0x00, 0xe5,
    0xf6, 0xf4, 0xfb, 0xf6, 0xe6, 0x06, 0xfc, 0xfc, 0xff, 0x1d, 0x00, 0xca,
    0x02, 0xea, 0x07, 0xf6, 0xf5, 0x11, 0xef, 0xf9, 0xec, 0xe4, 0xfa, 0xfa,
    0x09, 0x1b, 0x49, 0x0d, 0xd0, 0x01, 0xee, 0xe2, 0xfd, 0xe8, 0xdc, 0x32,
    0xbb, 0xe0, 0xb9, 0xd4, 0xfb, 0xfb, 0x42, 0x00, 0xef, 0xfe, 0x04, 0xe0,
    0x0e, 0xdb, 0xec, 0x1c, 0x0a, 0x30, 0x84, 0xee, 0x08, 0x06, 0x2a, 0xea,
    0xdf, 0x30, 0xfd, 0xdc, 0xe0, 0xbd, 0xd6, 0x1c, 0xed, 0x08, 0x81, 0xfe,
    0xfd, 0xfb, 0x35, 0x82, 0xe9, 0x1f, 0x11, 0xda, 0xde, 0xaf, 0xcf, 0x0c,
    0xf9, 0x11, 0x8a, 0xdd, 0xfe, 0x33, 0xf6, 0xdc, 0xd4, 0x05, 0xee, 0xd7,
    0xf8, 0xb5, 0xad, 0xfd, 0x1a, 0xc8, 0xa6, 0xe5, 0x10, 0x16, 0xe9, 0x35,
    0x83, 0x24, 0x27, 0xfb, 0xf3, 0x13, 0x08, 0xb8, 0x1a, 0x41, 0xd9, 0x26,
    0xe3, 0x00, 0xe2, 0xf6, 0xc3, 0xd2, 0x29, 0x21, 0xf6, 0xfc, 0xef, 0x9c,
    0xc6, 0x88, 0xf5, 0x22, 0xfd, 0xc3, 0xec, 0x58, 0x81, 0xe3, 0x2b, 0xdf,
    0x27, 0x0a, 0xdf, 0xb0, 0xb3, 0x68, 0xce, 0xf3, 0xed, 0x4a, 0x15, 0x82,
    0x92, 0xe0, 0xfd, 0x03, 0xd5, 0x65, 0x23, 0xd1, 0xd6, 0x4c, 0xbe, 0xec,
    0xf7, 0x17, 0x16, 0xfa, 0xe1, 0xdd, 0x39, 0x1c, 0xc2, 0x74, 0xe8, 0xbb,
    0xe2, 0xd5, 0x14, 0x08, 0xf5, 0x6a, 0x04, 0xe9, 0xaf, 0xe2, 0xc6, 0xce,
    0xe0, 0xde, 0x19, 0x83, 0x09, 0x7b, 0xe2, 0xe5, 0xe0, 0x0b, 0xf6, 0xc0,
    0xe0, 0xaa, 0xd6, 0xf7, 0xdb, 0xf5, 0x00, 0xa3, 0x1c, 0x3b, 0x15, 0x43,
    0x27, 0xd0, 0xdb, 0xd5, 0x07, 0xce, 0x03, 0xe8, 0xeb, 0x17, 0xec, 0xa0,
    0xe8, 0x03, 0x06, 0x0b, 0x0b, 0xb7, 0xd5, 0xfa, 0x15, 0x22, 0x2b, 0xe2,
    0x08, 0x27, 0x06, 0xdc, 0xed, 0xe9, 0xcf, 0xd6, 0x22, 0x81, 0xb5, 0x42,
    0x2f, 0x29, 0x1e, 0xdd, 0x16, 0x39, 0xeb, 0xd8, 0x26, 0xec, 0xc8, 0xe5,
    0xe5, 0xd5, 0xe8, 0xce, 0x08, 0xca, 0x27, 0x10, 0xe3, 0x18, 0xe4, 0xec,
    0xb9, 0xb6, 0x02, 0xfe, 0xe9, 0xbe, 0xa6, 0xb6, 0x0c, 0x0c, 0x04, 0xeb,
    0x1c, 0x30, 0xcd, 0xee, 0xf3, 0x9a, 0xf2, 0x0e, 0x1c, 0x99, 0xb8, 0xb4,
    0xfe, 0x0f, 0x1b, 0x27, 0xee, 0x1e, 0xdb, 0xfa, 0x93, 0x82, 0xf5, 0xf3,
    0x11, 0x9f, 0xdd, 0xad, 0x05, 0xe3, 0x16, 0xf4, 0x08, 0xfa, 0xfc, 0xfe,
    0xc5, 0x81, 0x2b, 0xdc, 0x2f, 0xda, 0xbc, 0xcf, 0xfd, 0xbe, 0x21, 0xf7,
    0xe9, 0xfc, 0x08, 0x20, 0x90, 0xab, 0x1c, 0xda, 0x83, 0xef, 0xe4, 0xb7,
    0xf7, 0xfb, 0xe0, 0xcc, 0xe1, 0xff, 0xb9, 0xd2, 0x07, 0xf3, 0xde, 0x2b,
    0x8e, 0xdc, 0xcf, 0xc4, 0x2d, 0xe7, 0xf5, 0x11, 0xe1, 0xea, 0xc3, 0xf1,
    0xe0, 0xdf, 0x00, 0x20, 0x99, 0xe0, 0xdb, 0xce, 0x00, 0xe6, 0xe7, 0x09,
    0xcd, 0xcb, 0x9f, 0xbf, 0xfe, 0xf6, 0x06, 0x29, 0x81, 0x11, 0xe9, 0xc2,
    0xff, 0xce, 0xf1, 0x19, 0xd6, 0xd0, 0xdc, 0xe3, 0xe9, 0x10, 0x03, 0x13,
    0x8b, 0x12, 0xfa, 0xad, 0xe9, 0xdd, 0xdf, 0xe8, 0x14, 0xcf, 0xdc, 0xff,
    0x16, 0x19, 0x0e, 0x04, 0x1a, 0xf0, 0x13, 0x5b, 0xd2, 0xef, 0x05, 0xd2,
    0x07, 0x02, 0x12, 0x1d, 0xfe, 0xc6, 0xff, 0x0d, 0x20, 0xed, 0x41, 0xdb,
    0xe9, 0x99, 0xfc, 0xc3, 0x1b, 0xff, 0x05, 0xeb, 0x01, 0xfe, 0x11, 0xee,
    0x00, 0xf5, 0x31, 0x7f, 0x00, 0xa2, 0xed, 0x9f, 0xfc, 0x10, 0x1b, 0xf4,
    0xed, 0xbb, 0xf1, 0xfd, 0x04, 0x84, 0x1a, 0x2e, 0x06, 0xbc, 0x26, 0xa6,
    0xeb, 0x15, 0xde, 0x02, 0xf7, 0xf4, 0xef, 0xeb, 0x05, 0xc4, 0x0e, 0xec,
    0x09, 0xd6, 0x03, 0x8b, 0xe1, 0xd7, 0x04, 0x09, 0xd4, 0x31, 0x08, 0xfe,
    0xe1, 0x05, 0xfe, 0xfa, 0x27, 0x0d, 0xd4, 0x27, 0xf0, 0xf6, 0xf3, 0x0e,
    0x4a, 0x9c, 0xbf, 0xe8, 0xe2, 0xd5, 0x40, 0xc8, 0xf0, 0x2e, 0x2e, 0x1a,
    0xe6, 0xdf, 0x06, 0x00, 0x12, 0xa2, 0xbf, 0xe4, 0x14, 0x06, 0x00, 0x19,
    0xe9, 0xf7, 0x28, 0x08, 0xe5, 0xb2, 0xce, 0x24, 0x18, 0xb1, 0xc6, 0xb8,
    0x0c, 0x3c, 0x25, 0x38, 0xd6, 0x07, 0xcb, 0x00, 0xe3, 0x81, 0xe0, 0x1a,
    0xff, 0x1c, 0xda, 0xb7, 0xd5, 0x22, 0x16, 0x24, 0xe6, 0x22, 0xd2, 0xe6,
    0xd8, 0x8c, 0xcf, 0xf1, 0x29, 0x23, 0x03, 0xb8, 0x36, 0xef, 0xff, 0xff,
    0x04, 0x00, 0x00, 0x00, 0x80, 0x00, 0x00, 0x00, 0x5d, 0x00, 0x00, 0x00,
    0x2c, 0xff, 0xff, 0xff, 0x9c, 0xff, 0xff, 0xff, 0x99, 0xfc, 0xff, 0xff,
    0x45, 0xff, 0xff, 0xff, 0xc5, 0xfd, 0xff, 0xff, 0xa8, 0xff, 0xff, 0xff,
    0x63, 0xfe, 0xff, 0xff, 0x5c, 0xfc, 0xff, 0xff, 0xec, 0xfe, 0xff, 0xff,
    0xa3, 0xff, 0xff, 0xff, 0x60, 0xfc, 0xff, 0xff, 0x8f, 0x00, 0x00, 0x00,
    0xaf, 0xfd, 0xff, 0xff, 0xe9, 0xfe, 0xff, 0xff, 0x06, 0x00, 0x00, 0x00,
    0xda, 0xff, 0xff, 0xff, 0xf9, 0xfe, 0xff, 0xff, 0x3c, 0xfe, 0xff, 0xff,
    0x1a, 0xff, 0xff, 0xff, 0x50, 0xfe, 0xff, 0xff, 0x9c, 0xff, 0xff, 0xff,
    0x2f, 0xff, 0xff, 0xff, 0x8c, 0xfe, 0xff, 0xff, 0x04, 0x00, 0x00, 0x00,
    0x29, 0xff, 0xff, 0xff, 0x86, 0xff, 0xff, 0xff, 0x1f, 0xfe, 0xff, 0xff,
    0xe9, 0xfe, 0xff, 0xff, 0x37, 0xff, 0xff, 0xff, 0xc4, 0x00, 0x00, 0x00,
    0xfa, 0xfd, 0xff, 0xff, 0xc2, 0xef, 0xff, 0xff, 0x04, 0x00, 0x00, 0x00,
    0x20, 0x00, 0x00, 0x00, 0xca, 0x32, 0x4e, 0xb3, 0xd4, 0x13, 0xf0, 0xf4,
    0xab, 0xd2, 0xba, 0x44, 0xef, 0xd9, 0xbd, 0xf6, 0x11, 0x54, 0xb7, 0x38,
    0xa7, 0xeb, 0xb2, 0x9e, 0x05, 0xe3, 0xc6, 0xc7, 0xdb, 0x7f, 0xb5, 0xca,
    0xee, 0xef, 0xff, 0xff, 0x04, 0x00, 0x00, 0x00, 0x20, 0x00, 0x00, 0x00,
    0x1d, 0x26, 0xc3, 0x59, 0xdd, 0xe4, 0xf8, 0xb2, 0x52, 0xc7, 0x1c, 0x3e,
    0x92, 0xbb, 0x3d, 0xc4, 0xc0, 0xb8, 0xd2, 0xd9, 0x7f, 0x80, 0x08, 0x13,
    0x0e, 0xb8, 0xf8, 0x4b, 0xf7, 0x16, 0xe5, 0xfe, 0x1a, 0xf0, 0xff, 0xff,
    0x04, 0x00, 0x00, 0x00, 0x00, 0x0c, 0x00, 0x00, 0xdc, 0x0f, 0xf0, 0xe3,
    0xeb, 0x13, 0x16, 0x2c, 0xcc, 0xfe, 0xea, 0xbd, 0xe6, 0x11, 0x30, 0x95,
    0x1a, 0xfb, 0x0c, 0xeb, 0x07, 0x08, 0xf5, 0x12, 0xf0, 0xf6, 0x20, 0xe7,
    0xbf, 0xfd, 0x18, 0xa0, 0x13, 0xd9, 0x0f, 0xfb, 0xe8, 0x1e, 0x12, 0x13,
    0xd7, 0xe1, 0xd7, 0xa6, 0xcc, 0x22, 0x1b, 0x89, 0x2b, 0xf6, 0xe9, 0xd3,
    0xe5, 0x06, 0x16, 0x1f, 0x10, 0xd2, 0x07, 0xf9, 0x81, 0x27, 0xf9, 0xa1,
    0x0b, 0x0e, 0x12, 0xeb, 0x16, 0x0f, 0x07, 0x00, 0x01, 0xf2, 0xec, 0xfa,
    0xec, 0x1e, 0x35, 0x9d, 0x0a, 0x0e, 0xcf, 0x04, 0x02, 0x32, 0x06, 0xf5,
    0x09, 0xe7, 0x08, 0xe2, 0xa2, 0x05, 0x23, 0xe3, 0xef, 0xbd, 0xc2, 0xbe,
    0xf0, 0x29, 0x2e, 0x9c, 0xa2, 0x20, 0xad, 0x12, 0x22, 0x02, 0xa6, 0x40,
    0xde, 0xf9, 0xd0, 0x3a, 0x05, 0xd9, 0xa7, 0x9a, 0x9a, 0x14, 0x0c, 0xd9,
    0x3b, 0xf1, 0x89, 0xa5, 0xdf, 0xcd, 0xf6, 0xc3, 0xe6, 0xea, 0xfd, 0xdc,
    0xd5, 0xf6, 0xab, 0x14, 0x2c, 0x30, 0xe7, 0xfa, 0xf2, 0x3f, 0x16, 0x05,
    0xc4, 0xe3, 0x84, 0xf0, 0xf1, 0x42, 0xc7, 0x13, 0xd4, 0xeb, 0xf7, 0x00,
    0x93, 0xa6, 0xe7, 0x9c, 0xbc, 0xfd, 0xd8, 0x8c, 0xc6, 0xd8, 0xd1, 0xb6,
    0x32, 0x39, 0x9e, 0x37, 0xc2, 0x4d, 0x10, 0x7f, 0xf8, 0x05, 0x8f, 0xc8,
    0xcb, 0x3c, 0xbc, 0x1b, 0xe9, 0xfb, 0xce, 0x1a, 0x04, 0x19, 0x38, 0xf8,
    0xd4, 0xdd, 0xae, 0xe3, 0x10, 0xcb, 0xdc, 0xcd, 0xb5, 0x9e, 0xdd, 0x36,
    0xf7, 0x37, 0xea, 0xff, 0xc9, 0x46, 0x35, 0xc9, 0xb5, 0xb5, 0xea, 0xbf,
    0x29, 0x58, 0xf1, 0xd8, 0xf9, 0x1a, 0xf0, 0xbf, 0xe6, 0x31, 0xa2, 0x00,
    0x0a, 0xa5, 0xd6, 0xf6, 0xaa, 0x81, 0xdb, 0x7a, 0xed, 0x47, 0x1b, 0x2f,
    0xb2, 0xea, 0x22, 0xd9, 0xc6, 0xff, 0x3b, 0x4c, 0xda, 0x42, 0xad, 0xa3,
    0x0d, 0x16, 0xf7, 0xa3, 0xa8, 0xeb, 0x9f, 0x11, 0xd7, 0xda, 0xb8, 0xb8,
    0x37, 0xc2, 0x90, 0x1b, 0xcf, 0x59, 0xf4, 0x33, 0xcd, 0x21, 0x04, 0xbc,
    0xa6, 0x17, 0x53, 0x04, 0x07, 0x32, 0xca, 0x0b, 0xe7, 0x17, 0x1c, 0xb4,
    0x25, 0x30, 0x17, 0xff, 0xfd, 0x20, 0xaf, 0xfa, 0x09, 0x00, 0xf9, 0xcc,
    0x14, 0x13, 0x1e, 0x13, 0xd7, 0xc7, 0x2f, 0x81, 0x1d, 0x5b, 0xe9, 0x9e,
    0x9e, 0xb7, 0x38, 0xf8, 0xf9, 0x10, 0x11, 0xc4, 0x1f, 0xf4, 0x4b, 0xbc,
    0xc7, 0x17, 0xe3, 0xbd, 0x02, 0x3c, 0x05, 0xb6, 0xe3, 0xce, 0x4f, 0x09,
    0x82, 0xfe, 0x01, 0xa9, 0x17, 0xed, 0xcb, 0xc2, 0x98, 0xc0, 0x4b, 0x9b,
    0xf7, 0x01, 0x35, 0xac, 0x56, 0x40, 0x4b, 0xee, 0xc9, 0x22, 0xcf, 0xe7,
    0xf1, 0x20, 0x29, 0xd5, 0x05, 0xdc, 0x50, 0x1f, 0x0a, 0xf8, 0x27, 0xa7,
    0x21, 0x43, 0x00, 0xd5, 0xcb, 0xb7, 0x1a, 0xe3, 0x29, 0x14, 0xe5, 0x00,
    0x5c, 0x88, 0x1e, 0x63, 0xe4, 0xd4, 0x31, 0x3c, 0x18, 0x90, 0x25, 0x18,
    0x0b, 0x18, 0xf7, 0xe8, 0x26, 0xf9, 0x02, 0xd1, 0x03, 0xf2, 0xf9, 0x53,
    0x1f, 0x05, 0xfd, 0x43, 0x2d, 0x1f, 0x18, 0xec, 0xf1, 0xad, 0x01, 0x62,
    0x17, 0x95, 0xd6, 0x56, 0x2c, 0xd2, 0xe6, 0x3a, 0xc2, 0x42, 0x19, 0xd4,
    0x3b, 0xf0, 0x36, 0xeb, 0xc2, 0x0d, 0xde, 0x1b, 0x56, 0xe8, 0xe1, 0x4a,
    0x17, 0x14, 0xc5, 0x0c, 0x05, 0xa5, 0xd0, 0x01, 0xfc, 0xb6, 0x19, 0x49,
    0x4f, 0x81, 0x15, 0x4a, 0x20, 0x13, 0x22, 0xda, 0x40, 0xaf, 0x36, 0x13,
    0x14, 0xed, 0xfb, 0x0f, 0x08, 0x0f, 0x25, 0x3e, 0x54, 0xec, 0x4a, 0x02,
    0x28, 0x08, 0x0c, 0x3e, 0xe9, 0xcd, 0x04, 0xd4, 0x14, 0xe1, 0x01, 0xcb,
    0xf7, 0xea, 0xdf, 0x99, 0x1c, 0x25, 0x16, 0xe6, 0x60, 0xe6, 0x0d, 0x24,
    0xff, 0x08, 0x35, 0x1b, 0x2a, 0x19, 0x0c, 0x09, 0xfd, 0xeb, 0x75, 0x38,
    0xd2, 0xeb, 0x24, 0xf5, 0xd8, 0xbd, 0x17, 0x0d, 0x5c, 0xca, 0xf2, 0xdb,
    0xfc, 0xeb, 0xf5, 0x11, 0xe6, 0xb9, 0xe8, 0xd5, 0xe9, 0xea, 0x3e, 0x22,
    0x2d, 0x39, 0x0e, 0xdb, 0x01, 0xc5, 0x7f, 0x1b, 0xbc, 0xe2, 0xef, 0xfc,
    0x9e, 0xeb, 0xe4, 0xd3, 0x25, 0xc7, 0xa7, 0xa2, 0xee, 0x4b, 0xbf, 0xef,
    0x07, 0xf2, 0x02, 0x0c, 0x1d, 0xf8, 0x11, 0x25, 0xd8, 0xcb, 0xb2, 0xdc,
    0xef, 0xd0, 0xd3, 0xc9, 0x19, 0x06, 0x95, 0x47, 0xf6, 0xbc, 0xff, 0x08,
    0x2b, 0x49, 0xce, 0xe0, 0xfe, 0x29, 0x24, 0x3c, 0xd4, 0xdb, 0xfd, 0x06,
    0x23, 0x4c, 0x87, 0xb3, 0xe9, 0x19, 0xd2, 0xcf, 0x0d, 0xcf, 0xdc, 0xc7,
    0xd4, 0x81, 0xad, 0x38, 0xcd, 0xf2, 0xe0, 0x2d, 0xe1, 0x5e, 0xe9, 0x21,
    0xdb, 0xd7, 0x0a, 0x30, 0xeb, 0x01, 0x1d, 0xe2, 0x28, 0x2a, 0xd3, 0xdc,
    0x2c, 0x1d, 0xc5, 0xac, 0x18, 0x8e, 0xda, 0xf8, 0x29, 0xa0, 0xe5, 0x0d,
    0xfa, 0xfe, 0xc5, 0x5d, 0xea, 0x20, 0xe0, 0xd5, 0xed, 0xdd, 0x03, 0x09,
    0x09, 0x00, 0xe6, 0xcc, 0x25, 0x5f, 0xf2, 0x0e, 0xdf, 0x2a, 0xe9, 0xf0,
    0xed, 0xbf, 0xf2, 0x0f, 0x35, 0x81, 0xdf, 0x17, 0x14, 0x9d, 0xd4, 0xf8,
    0xf8, 0xd1, 0xc2, 0x26, 0x0f, 0x1a, 0x1b, 0xf2, 0x18, 0xa3, 0x32, 0xef,
    0xeb, 0x4c, 0xe0, 0x23, 0x0b, 0x21, 0xc7, 0x16, 0x0b, 0xfb, 0xd4, 0x25,
    0x23, 0x9a, 0xe2, 0x6a, 0x13, 0xe0, 0xde, 0x16, 0xa2, 0x3c, 0xaf, 0x0b,
    0xf3, 0x1d, 0xf5, 0x15, 0xda, 0x93, 0x29, 0x14, 0x41, 0x4e, 0x06, 0xec,
    0x34, 0xfd, 0xa1, 0x3e, 0xc8, 0x15, 0x0b, 0x11, 0x10, 0x94, 0x10, 0x20,
    0x06, 0xdc, 0xce, 0x40, 0x94, 0x34, 0xdb, 0xc4, 0xf3, 0xea, 0x2a, 0x20,
    0xe2, 0x8d, 0xfa, 0x41, 0xdf, 0x72, 0xea, 0x2b, 0xb6, 0xb5, 0xc4, 0xbb,
    0xf3, 0x01, 0xec, 0xd0, 0x1d, 0xef, 0x90, 0x32, 0x24, 0x2c, 0x0a, 0x2a,
    0xf1, 0x19, 0x0e, 0x19, 0xe9, 0xcc, 0xf7, 0xdb, 0xbf, 0x2e, 0x0a, 0x0d,
    0x0d, 0x1e, 0xae, 0xea, 0xed, 0x81, 0xd8, 0x05, 0xf8, 0x2d, 0xa8, 0xc4,
    0xe7, 0x08, 0xbd, 0x21, 0xea, 0xf6, 0x28, 0x0d, 0xb1, 0xe9, 0xe9, 0x3f,
    0x12, 0xfb, 0xb9, 0xc3, 0xbd, 0xfe, 0xbc, 0x00, 0x0b, 0xeb, 0xd4, 0x0a,
    0xc3, 0xc3, 0xee, 0xe5, 0x1e, 0xdd, 0xbf, 0xc5, 0x2f, 0xfc, 0x8b, 0x0c,
    0xec, 0x12, 0xdb, 0x11, 0xc8, 0x29, 0x0b, 0x4b, 0x1a, 0xf7, 0xa5, 0xfd,
    0xb9, 0x2d, 0xbe, 0xed, 0xf4, 0xff, 0xb3, 0xce, 0xdf, 0xaa, 0xe5, 0xbe,
    0x1b, 0x09, 0x0d, 0xe2, 0xec, 0x30, 0xe6, 0x47, 0x28, 0x25, 0xc4, 0xe8,
    0xfe, 0x2e, 0x0e, 0xfa, 0xf6, 0x86, 0xef, 0x04, 0xe3, 0xfe, 0x81, 0xdb,
    0x58, 0xf8, 0x0d, 0x2b, 0xae, 0x8b, 0xea, 0xe4, 0x52, 0xf8, 0x11, 0xcb,
    0x19, 0x07, 0x29, 0xf6, 0x42, 0x05, 0xa3, 0x2a, 0x1b, 0x31, 0xf7, 0x01,
    0x32, 0xce, 0xc1, 0xd7, 0x0f, 0xf6, 0xae, 0xe7, 0xd7, 0xd7, 0x21, 0x1f,
    0xc0, 0xc0, 0xed, 0xe5, 0x35, 0xfd, 0x21, 0xcf, 0x1d, 0x19, 0x19, 0xf1,
    0x17, 0xff, 0x8d, 0x09, 0x1b, 0x3d, 0x0f, 0x06, 0x1e, 0x99, 0xbf, 0xd0,
    0xe2, 0x22, 0xc1, 0xf0, 0xe1, 0xb4, 0x2a, 0x30, 0x1a, 0xfe, 0xe7, 0xb3,
    0xdc, 0x1c, 0x30, 0x20, 0xc0, 0x15, 0xfd, 0xeb, 0xc4, 0xeb, 0xf6, 0xa1,
    0x64, 0x94, 0x27, 0x06, 0x01, 0x11, 0x12, 0xce, 0x46, 0xe9, 0x3b, 0xe1,
    0xf8, 0xc4, 0x22, 0xff, 0x60, 0x11, 0x3a, 0xc6, 0x14, 0xec, 0x6b, 0x39,
    0xe3, 0x03, 0x30, 0xcc, 0xca, 0x43, 0xec, 0x08, 0xfd, 0xdb, 0x20, 0xf2,
    0x11, 0x20, 0xff, 0xfd, 0x20, 0x33, 0x1e, 0x05, 0xe6, 0x9a, 0x2a, 0xe9,
    0xf1, 0x03, 0x51, 0xd7, 0x11, 0x00, 0x77, 0x04, 0xcd, 0x01, 0x13, 0x05,
    0xbe, 0xbe, 0xee, 0xfe, 0xf8, 0xf4, 0xf0, 0xbf, 0xdc, 0xfd, 0xeb, 0x08,
    0x35, 0xfc, 0x1c, 0xf7, 0x81, 0xfa, 0x14, 0x31, 0x1e, 0x1c, 0xbb, 0xd5,
    0x52, 0xc5, 0x0f, 0x51, 0xff, 0xeb, 0xd9, 0x4f, 0x4b, 0x81, 0xe8, 0x1e,
    0xf6, 0x31, 0xf6, 0xf5, 0xfc, 0xec, 0xec, 0xc6, 0xf7, 0xa3, 0xae, 0x03,
    0x34, 0x04, 0x36, 0x23, 0x12, 0xfe, 0xff, 0xf8, 0x05, 0xd6, 0x1e, 0x5c,
    0xe3, 0xb4, 0x1b, 0x3d, 0x19, 0xa5, 0xea, 0x3e, 0xd3, 0x4d, 0x4b, 0xd1,
    0xd9, 0xbe, 0x1a, 0xe9, 0x0b, 0xef, 0xd9, 0x5e, 0x1d, 0xf9, 0x10, 0x61,
    0x1c, 0xff, 0x2b, 0x2d, 0x37, 0xd6, 0xfb, 0x08, 0xe7, 0xc6, 0x38, 0xf9,
    0x2e, 0xbb, 0xe1, 0x16, 0x26, 0x2a, 0xfc, 0xbd, 0x26, 0xa9, 0xd0, 0xd3,
    0x21, 0xc4, 0xd4, 0x3d, 0x1b, 0xee, 0x1e, 0x42, 0x0e, 0x16, 0xfc, 0xf5,
    0xe4, 0x1e, 0x18, 0xf4, 0x1e, 0xcf, 0xd0, 0xf8, 0xd9, 0x34, 0xfd, 0xe3,
    0x24, 0x12, 0x05, 0xf0, 0xc6, 0xf8, 0x22, 0xef, 0xeb, 0xa4, 0x35, 0xdb,
    0x0e, 0x3b, 0x13, 0xbc, 0x00, 0x2c, 0x0f, 0xd3, 0xeb, 0xf3, 0x1f, 0xdc,
    0x36, 0x8e, 0xd6, 0x07, 0xc5, 0x3b, 0x2c, 0xdc, 0x33, 0x1f, 0x40, 0xf9,
    0xd0, 0xad, 0x2b, 0xcf, 0xef, 0xd1, 0x18, 0xe1, 0xec, 0x4f, 0xea, 0xc7,
    0x0f, 0x4f, 0x19, 0x10, 0xd8, 0xf4, 0x0c, 0x00, 0xff, 0x81, 0x03, 0x20,
    0xe8, 0x1c, 0x1d, 0xcf, 0x14, 0x1b, 0x16, 0x09, 0xfe, 0xc4, 0x2d, 0xf3,
    0xf6, 0xdb, 0x0f, 0x09, 0xd4, 0x18, 0x07, 0xc7, 0xe5, 0xf4, 0x81, 0x10,
    0x0d, 0xd9, 0xbc, 0x02, 0xf2, 0xcd, 0x07, 0xf7, 0xf7, 0xed, 0xd2, 0x1c,
    0xca, 0xeb, 0xe0, 0xcf, 0x3d, 0xce, 0x11, 0x24, 0x17, 0xc4, 0xfc, 0xeb,
    0x04, 0x5b, 0x32, 0xfa, 0x2a, 0x24, 0x95, 0x0c, 0x31, 0xce, 0xd1, 0xd6,
    0x0e, 0xbd, 0xfe, 0x41, 0xea, 0x08, 0xe9, 0x14, 0xe7, 0x2e, 0xd3, 0xc7,
    0x14, 0x23, 0x19, 0x00, 0x03, 0xa2, 0x1f, 0xe8, 0xef, 0x4d, 0xff, 0x11,
    0xf8, 0x23, 0xa8, 0x13, 0xea, 0xc2, 0xcb, 0x22, 0x20, 0xce, 0xf9, 0x46,
    0xe5, 0x02, 0xd6, 0xff, 0x0b, 0x32, 0xda, 0xec, 0x3e, 0xf1, 0x17, 0x10,
    0x0e, 0xd0, 0x29, 0xfa, 0xec, 0x36, 0xc2, 0xd0, 0x1a, 0x4b, 0xd7, 0xdb,
    0x23, 0xe3, 0xbc, 0xf2, 0x36, 0xad, 0xe6, 0x32, 0x14, 0xa8, 0xec, 0xfa,
    0x0a, 0x1a, 0x10, 0x03, 0x1b, 0x03, 0x00, 0xe0, 0xe0, 0x81, 0x0b, 0x4d,
    0xde, 0x2d, 0x9c, 0x09, 0xf2, 0xe8, 0x8f, 0xde, 0xf2, 0xd6, 0xbe, 0x1f,
    0x3b, 0xb4, 0xf0, 0x67, 0x0e, 0xd9, 0x03, 0x48, 0xbd, 0x31, 0xd8, 0xed,
    0xee, 0x16, 0x36, 0xe4, 0xd7, 0xbe, 0x3e, 0xe2, 0x1a, 0x47, 0xb8, 0x11,
    0xf9, 0x2b, 0x99, 0x37, 0xd7, 0xe6, 0xe3, 0x42, 0xed, 0xa8, 0xff, 0x06,
    0xea, 0xe5, 0xe7, 0x61, 0xb9, 0xe1, 0xda, 0xfd, 0x13, 0x12, 0x02, 0x31,
    0xc4, 0xc2, 0x24, 0xd1, 0x1f, 0x72, 0x0d, 0xda, 0xf6, 0xb4, 0x28, 0x96,
    0x46, 0x39, 0xf6, 0x0d, 0xd3, 0xe5, 0xfc, 0xef, 0xe3, 0x2c, 0xaf, 0xad,
    0x42, 0x16, 0x19, 0xe8, 0x4e, 0xef, 0x45, 0x01, 0xed, 0x14, 0xa8, 0xdd,
    0xd5, 0xec, 0x21, 0xad, 0xe1, 0xf7, 0x48, 0xc5, 0x53, 0x09, 0x21, 0x29,
    0xa9, 0x1c, 0xd4, 0xf0, 0x9f, 0xea, 0xd4, 0x9e, 0x0b, 0xf0, 0x32, 0xd9,
    0x17, 0x0c, 0x3a, 0x1d, 0x1c, 0x3f, 0xe8, 0x8c, 0x81, 0xeb, 0x65, 0xa2,
    0x12, 0xdf, 0x07, 0xbf, 0x22, 0x3b, 0xd9, 0x26, 0xde, 0x05, 0x22, 0xc2,
    0xb5, 0x23, 0xc5, 0xb8, 0x51, 0x05, 0x15, 0xe9, 0x4c, 0x05, 0xe1, 0xe1,
    0x10, 0xfb, 0xf1, 0xba, 0xd9, 0xf5, 0x0d, 0xd4, 0xf5, 0x05, 0xa2, 0x1a,
    0x07, 0xe3, 0xf5, 0x1b, 0xd7, 0xf6, 0xfe, 0x2c, 0xc2, 0xea, 0x01, 0x36,
    0xd2, 0x43, 0x06, 0xcc, 0x03, 0x8a, 0xe4, 0x29, 0x3f, 0x28, 0x1e, 0x15,
    0x07, 0x26, 0xc6, 0xc7, 0xee, 0xb7, 0xd5, 0xd5, 0x21, 0xd9, 0x01, 0xfe,
    0xde, 0x11, 0xf0, 0x10, 0xc6, 0xd9, 0xfb, 0x28, 0xfd, 0x38, 0x03, 0x1d,
    0xc8, 0x81, 0xe3, 0xe7, 0x09, 0x03, 0xd9, 0x00, 0x06, 0x00, 0xe1, 0xac,
    0xb6, 0xf8, 0xeb, 0xfe, 0x07, 0xd2, 0x0e, 0xeb, 0x0e, 0x04, 0x16, 0x4b,
    0xfb, 0xe9, 0xf5, 0x18, 0x12, 0x36, 0x15, 0x00, 0xc8, 0xbe, 0xa8, 0xd7,
    0x07, 0xea, 0xd7, 0xf1, 0xf2, 0x0f, 0x09, 0xc5, 0xa0, 0x9e, 0xcc, 0xcd,
    0x45, 0xfe, 0x11, 0xcb, 0xe4, 0x2b, 0xea, 0x00, 0x0c, 0x0d, 0x8e, 0x31,
    0x05, 0x3e, 0xf9, 0x0e, 0xfb, 0x9e, 0xf4, 0x06, 0x04, 0x13, 0xa9, 0xf1,
    0x07, 0xa6, 0xff, 0x1f, 0xe9, 0x87, 0xe4, 0x31, 0x25, 0x0a, 0x23, 0xf7,
    0xd5, 0x16, 0x15, 0x25, 0x5f, 0x01, 0x99, 0x11, 0x41, 0x38, 0x31, 0xec,
    0x1b, 0x82, 0xd4, 0x05, 0xc6, 0x20, 0x93, 0xd6, 0x0d, 0xd9, 0x0c, 0xf8,
    0xbf, 0x81, 0xd8, 0x13, 0x1c, 0xfb, 0x1d, 0xe7, 0xfc, 0xed, 0x1e, 0xe1,
    0x3a, 0xeb, 0xa6, 0x20, 0x3c, 0x29, 0x27, 0xdf, 0x09, 0xba, 0xe0, 0xf1,
    0x19, 0xe6, 0xcf, 0x00, 0x14, 0xd5, 0xf3, 0x23, 0xbe, 0x40, 0x24, 0xd2,
    0x37, 0xfd, 0x20, 0xd4, 0xd5, 0x5a, 0xcd, 0xb5, 0xf6, 0xf8, 0x0c, 0x92,
    0x5f, 0x1b, 0xcf, 0x25, 0x2d, 0x28, 0x15, 0xca, 0xf9, 0x25, 0x00, 0x00,
    0xc0, 0xdb, 0xe9, 0x81, 0xb5, 0xbc, 0x03, 0xba, 0x2d, 0x44, 0x17, 0xe6,
    0xfa, 0x51, 0xaa, 0xb3, 0xd3, 0x2b, 0x25, 0xca, 0x05, 0x13, 0x0e, 0x04,
    0x24, 0xe2, 0x24, 0xf8, 0x29, 0xf8, 0x02, 0xdf, 0xb4, 0xd2, 0x28, 0xab,
    0x13, 0xcb, 0x03, 0xa4, 0x15, 0x17, 0x55, 0xe9, 0xf4, 0x2f, 0xd7, 0xe8,
    0xbf, 0x27, 0xe3, 0xb1, 0x27, 0xe0, 0x09, 0x11, 0x17, 0x2c, 0xd2, 0xb9,
    0x2d, 0x15, 0xe5, 0x08, 0xd3, 0xcf, 0x28, 0xa9, 0xdc, 0xd8, 0xeb, 0x14,
    0x1c, 0x22, 0xde, 0xe3, 0x0b, 0xf2, 0xb9, 0x07, 0xd9, 0xcb, 0xbd, 0x04,
    0xd3, 0x35, 0xfe, 0x36, 0xd5, 0xf3, 0xf9, 0xe3, 0xee, 0x24, 0xd9, 0x1a,
    0xdb, 0xe3, 0xfc, 0x1d, 0xf2, 0xdd, 0x03, 0x11, 0x31, 0x1e, 0xd7, 0xe6,
    0xd8, 0xd0, 0xfc, 0xcd, 0x01, 0xe8, 0xe0, 0xfb, 0xde, 0x49, 0xf8, 0x14,
    0xeb, 0xfe, 0xf9, 0xf3, 0x02, 0x35, 0xdf, 0xe9, 0x81, 0xcc, 0x27, 0xf3,
    0x0d, 0x19, 0xe9, 0xe1, 0x3d, 0x1d, 0xfb, 0x1f, 0xfa, 0xed, 0x05, 0xc2,
    0x3a, 0xe1, 0xb1, 0x24, 0xf3, 0x34, 0x13, 0x2f, 0xe0, 0x13, 0xf1, 0xe3,
    0xed, 0x24, 0xdc, 0x21, 0x99, 0xbb, 0x13, 0x14, 0xd4, 0xe8, 0x1b, 0xaf,
    0xde, 0x3b, 0x00, 0xf4, 0xd1, 0x34, 0xc8, 0xe9, 0xc5, 0x16, 0x18, 0xbc,
    0x40, 0x19, 0x02, 0xf5, 0xc8, 0x53, 0x1c, 0xfa, 0x0c, 0xee, 0x10, 0xc5,
    0x81, 0xf5, 0xdd, 0xc7, 0xee, 0x11, 0x04, 0xb3, 0x17, 0x0a, 0x17, 0xd9,
    0xba, 0xf9, 0xe0, 0xe5, 0xc2, 0x2a, 0x48, 0xb4, 0x09, 0x23, 0x15, 0x15,
    0xad, 0x4d, 0x1c, 0xdf, 0x19, 0x31, 0x0f, 0xfd, 0xcd, 0xf3, 0xf6, 0xd6,
    0x22, 0xea, 0x0e, 0xf5, 0x16, 0xe7, 0xf9, 0xd2, 0x00, 0xfb, 0xd4, 0xdd,
    0xca, 0x29, 0x62, 0xba, 0x09, 0x05, 0xf6, 0x1a, 0x1e, 0x6d, 0xe7, 0xd1,
    0xd9, 0x18, 0x19, 0xf9, 0x90, 0xe8, 0x1d, 0xe3, 0x3a, 0x0d, 0xfd, 0xdd,
    0xd3, 0x02, 0x32, 0x0d, 0xd4, 0x2a, 0x2a, 0xe1, 0xad, 0x00, 0xc9, 0x01,
    0x57, 0x9e, 0x06, 0x06, 0xf7, 0x1e, 0xeb, 0xf8, 0x32, 0x37, 0x20, 0x28,
    0xde, 0xeb, 0x20, 0x24, 0x0d, 0xe4, 0x41, 0xf4, 0xd9, 0xd6, 0x7f, 0x25,
    0xe9, 0xda, 0xeb, 0xd3, 0xc8, 0xe0, 0xc2, 0xf5, 0x2d, 0xbd, 0xa2, 0xeb,
    0xcc, 0xff, 0x2e, 0x0c, 0x72, 0x2a, 0x00, 0x29, 0xe7, 0xb1, 0xfb, 0xff,
    0x15, 0x28, 0xe4, 0xf1, 0x0d, 0xbb, 0x2e, 0xf2, 0xf4, 0x28, 0x08, 0xe0,
    0xca, 0xc8, 0xfd, 0xdb, 0xf7, 0xa7, 0xe4, 0x01, 0xbd, 0x24, 0xe3, 0xef,
    0x5d, 0xef, 0x3c, 0xee, 0xce, 0x00, 0x22, 0xfa, 0x35, 0x29, 0x52, 0xd0,
    0xd8, 0x2d, 0x68, 0x50, 0xd2, 0x2b, 0x23, 0xd8, 0x0a, 0xd9, 0xf6, 0xc0,
    0x00, 0x99, 0xe8, 0xfa, 0xd4, 0x36, 0x49, 0xbf, 0x66, 0x1a, 0x16, 0xb4,
    0x00, 0xe7, 0x2a, 0x02, 0x1b, 0x22, 0x64, 0xc0, 0xd3, 0xf6, 0x4a, 0xc6,
    0x0c, 0xf4, 0x02, 0xff, 0xf5, 0x31, 0xfa, 0xd9, 0x62, 0x81, 0xd6, 0xe9,
    0xe7, 0xe2, 0x21, 0xeb, 0x66, 0x22, 0x40, 0xda, 0x01, 0xd8, 0xc0, 0x20,
    0x4d, 0xf8, 0x04, 0xcc, 0x1f, 0x00, 0xfc, 0x2f, 0xaf, 0xe3, 0xeb, 0xfa,
    0x9f, 0x0b, 0xe5, 0xe9, 0x4c, 0xcd, 0xb4, 0xc2, 0xe0, 0x56, 0x13, 0xbc,
    0x21, 0xfb, 0xd8, 0x1a, 0xbb, 0x1a, 0x31, 0xf2, 0x02, 0x41, 0xe9, 0xe6,
    0xae, 0xa1, 0xe4, 0xf1, 0x36, 0xef, 0xda, 0xf7, 0xd7, 0x96, 0xd4, 0x7f,
    0xd2, 0x0b, 0xe2, 0xd7, 0x28, 0xee, 0x49, 0x58, 0xd7, 0xca, 0x3e, 0x2d,
    0xff, 0x3f, 0x18, 0x4b, 0x52, 0xff, 0xc6, 0x09, 0xad, 0xfc, 0xce, 0x6d,
    0xdb, 0xe4, 0xd2, 0x10, 0x04, 0xa4, 0xe8, 0x3c, 0xff, 0x30, 0xe2, 0x12,
    0xe5, 0xea, 0x47, 0xe3, 0xe6, 0x09, 0x0a, 0x51, 0x52, 0x34, 0x1c, 0x0a,
    0x3a, 0xf4, 0xe5, 0x01, 0xba, 0xbf, 0xdb, 0x5f, 0x39, 0xc6, 0xda, 0x2a,
    0x59, 0x93, 0xff, 0x4c, 0x29, 0x6c, 0xbb, 0x3c, 0xb4, 0xac, 0xfa, 0xea,
    0x02, 0x02, 0xd9, 0x4a, 0x02, 0x48, 0xd4, 0x0c, 0x51, 0x03, 0x1e, 0xbc,
    0xf3, 0xa5, 0x1e, 0xb6, 0xec, 0x24, 0xf6, 0xf2, 0xc1, 0xba, 0x82, 0xf8,
    0x22, 0xb0, 0xa2, 0x2b, 0xac, 0xf3, 0xae, 0x1e, 0x43, 0x3c, 0xe7, 0xf0,
    0xd5, 0xf0, 0x06, 0x19, 0xdc, 0x15, 0x20, 0xc9, 0xec, 0xcb, 0x02, 0xcd,
    0xac, 0x21, 0x02, 0x12, 0x0e, 0x8e, 0xa0, 0xee, 0xff, 0xcd, 0x81, 0xf2,
    0xb7, 0xeb, 0x08, 0x27, 0x44, 0x2d, 0xe7, 0xe8, 0xb5, 0xf8, 0xd9, 0x2a,
    0x13, 0x33, 0xe5, 0xa8, 0xc7, 0x84, 0x00, 0xe8, 0x9e, 0x43, 0x2e, 0x0f,
    0x18, 0xbc, 0xc7, 0xc9, 0x07, 0xb3, 0xc1, 0xf9, 0xfe, 0xeb, 0xef, 0xe7,
    0x4a, 0x45, 0xf4, 0xff, 0x0b, 0xe6, 0x05, 0x28, 0x26, 0x05, 0x1e, 0xe6,
    0xec, 0xcc, 0x01, 0x26, 0xcd, 0x16, 0xfe, 0xd6, 0x23, 0x06, 0xb4, 0xf1,
    0x17, 0xf4, 0xdc, 0x28, 0xc0, 0x51, 0x02, 0x0f, 0x14, 0x06, 0x11, 0xe6,
    0x9c, 0xd5, 0xd2, 0x0f, 0xdf, 0x2b, 0x0d, 0x09, 0xbf, 0xcd, 0xff, 0xe5,
    0xc2, 0xfe, 0x31, 0x0d, 0xd6, 0xfc, 0x81, 0x35, 0xe4, 0xe9, 0xed, 0x35,
    0xf8, 0x4e, 0xf8, 0x08, 0x14, 0x32, 0xf3, 0xf7, 0xd7, 0xe7, 0xde, 0x23,
    0x03, 0x00, 0x07, 0xcb, 0xdb, 0xf0, 0xf8, 0xe3, 0xd0, 0xfc, 0x1c, 0x01,
    0xaa, 0x13, 0x8d, 0x20, 0x09, 0x00, 0xd8, 0x14, 0xbe, 0x19, 0x11, 0x01,
    0x0e, 0x12, 0x22, 0x15, 0x99, 0x15, 0x00, 0x2d, 0x15, 0x33, 0x1c, 0x11,
    0x18, 0xd1, 0xe0, 0x24, 0xce, 0xd3, 0x94, 0xff, 0x51, 0xd5, 0x0f, 0x20,
    0x27, 0x1c, 0xca, 0xb6, 0xa6, 0x1a, 0x18, 0xb7, 0xc5, 0xc2, 0xf9, 0x18,
    0x3b, 0xfe, 0x1e, 0xd4, 0x09, 0xe7, 0x46, 0xad, 0xbc, 0x04, 0xc8, 0x21,
    0xdf, 0x16, 0x0e, 0xf9, 0x5b, 0xc7, 0x07, 0x08, 0x27, 0xe7, 0x19, 0xda,
    0xb2, 0x46, 0x13, 0x81, 0xe6, 0xfb, 0xda, 0x00, 0x41, 0xef, 0x15, 0x1a,
    0x08, 0x0d, 0x1f, 0xb1, 0x04, 0x13, 0xeb, 0x08, 0xbc, 0xd4, 0xe3, 0xa8,
    0xfd, 0xea, 0xfa, 0x3d, 0x10, 0xee, 0x40, 0xc0, 0xca, 0x3b, 0x35, 0xac,
    0xff, 0xc7, 0x36, 0xc8, 0xe2, 0x15, 0x01, 0x1f, 0xe0, 0x3d, 0x2a, 0x86,
    0x21, 0xd1, 0x40, 0x13, 0xbb, 0x11, 0xdf, 0xeb, 0xda, 0xd2, 0x0f, 0xbc,
    0x1a, 0xa2, 0x05, 0xde, 0xf5, 0x47, 0xdd, 0x9c, 0x45, 0xdd, 0x38, 0x08,
    0xf5, 0x13, 0x05, 0x98, 0x33, 0x54, 0x67, 0xe6, 0x16, 0x1c, 0x12, 0x19,
    0xf2, 0xfa, 0x28, 0xc8, 0xe0, 0x3f, 0xeb, 0xee, 0x61, 0xbb, 0x0f, 0xef,
    0xeb, 0x0a, 0x35, 0xda, 0x33, 0xe2, 0x3c, 0x3b, 0xb9, 0xc2, 0x39, 0xdf,
    0x35, 0x1e, 0xfd, 0xc8, 0xf9, 0x10, 0x7f, 0x0f, 0x04, 0xcc, 0xbb, 0x99,
    0xf6, 0x1a, 0x29, 0x93, 0x53, 0xb7, 0xef, 0xfb, 0xd6, 0x15, 0x20, 0xa9,
    0xda, 0xc9, 0x2a, 0xea, 0x97, 0xd6, 0xf9, 0xfa, 0x09, 0xba, 0x39, 0xcd,
    0x15, 0x27, 0x3b, 0x18, 0x01, 0x26, 0x34, 0xad, 0xb5, 0xdd, 0xec, 0xc7,
    0x2b, 0x02, 0x2b, 0xaa, 0x12, 0x13, 0x09, 0x22, 0xe2, 0x10, 0xf1, 0x19,
    0xca, 0xd0, 0x35, 0xd7, 0x2b, 0xcf, 0x3b, 0x11, 0xec, 0x19, 0x22, 0x4c,
    0xee, 0xf1, 0xf1, 0xd1, 0xc5, 0x21, 0xf7, 0xc8, 0x22, 0x1c, 0xe5, 0xd2,
    0xe8, 0x16, 0x18, 0x35, 0x4b, 0x03, 0xfa, 0xd6, 0x81, 0xc4, 0x21, 0xf8,
    0x2a, 0xe8, 0x16, 0xe8, 0xf1, 0x1a, 0x00, 0xf3, 0xcb, 0xd0, 0x3b, 0xf2,
    0xe1, 0xf7, 0xdd, 0xee, 0x1b, 0xd5, 0xdb, 0xb0, 0xe5, 0x29, 0x04, 0xd8,
    0x3d, 0xf5, 0xe0, 0xd2, 0xc7, 0xf1, 0x27, 0x0b, 0xe8, 0xbe, 0xfe, 0xc8,
    0x31, 0x30, 0x02, 0xba, 0x2f, 0x0d, 0xcc, 0xef, 0x03, 0x0b, 0xfe, 0xc1,
    0x0b, 0x15, 0x42, 0xe0, 0xbe, 0xae, 0x0e, 0x0c, 0xe8, 0x1c, 0x81, 0xb4,
    0xc4, 0xba, 0x05, 0xe9, 0xfd, 0xfa, 0x22, 0x0f, 0x4c, 0x33, 0xfb, 0xcc,
    0x3c, 0x02, 0xb7, 0xef, 0x1e, 0xf7, 0x02, 0xac, 0x06, 0x0c, 0x00, 0x19,
    0xe8, 0xb0, 0xe7, 0x10, 0x15, 0xdd, 0xc1, 0xbd, 0xb2, 0xd6, 0x32, 0xf4,
    0x06, 0xe8, 0x0f, 0xd9, 0x42, 0x08, 0x29, 0xd8, 0xfa, 0x05, 0xdb, 0xf0,
    0x22, 0x1d, 0x1b, 0xc9, 0x03, 0xfe, 0x3b, 0x05, 0xfc, 0xba, 0xe3, 0xee,
    0x0a, 0xe5, 0xd4, 0xbf, 0xaf, 0xe5, 0x34, 0x05, 0x58, 0x14, 0xfb, 0xdf,
    0xed, 0xdb, 0x1e, 0x4e, 0xaa, 0xc4, 0xe2, 0x15, 0xec, 0x81, 0xdd, 0x1d,
    0x34, 0xcb, 0x00, 0x99, 0xf3, 0x52, 0x29, 0xe6, 0xec, 0xfb, 0xf8, 0x25,
    0x41, 0xd1, 0x15, 0x47, 0x5c, 0x13, 0x1e, 0x38, 0x14, 0xbc, 0x39, 0x37,
    0xe4, 0x0c, 0x23, 0xa8, 0xe8, 0xd9, 0xbe, 0xf1, 0x56, 0x02, 0x19, 0xba,
    0x19, 0x4a, 0x25, 0xdd, 0xe6, 0x0a, 0x11, 0x55, 0x0a, 0xb4, 0x08, 0xf6,
    0x15, 0xdb, 0x10, 0x1b, 0x07, 0xe7, 0xf6, 0x11, 0xb5, 0x05, 0x0a, 0xc5,
    0x53, 0xcd, 0xed, 0xed, 0x43, 0x13, 0x04, 0xa0, 0xfd, 0x02, 0xfe, 0xd6,
    0x56, 0x14, 0x3b, 0x07, 0x1a, 0x06, 0x09, 0xf9, 0x1e, 0x3d, 0x2e, 0x0e,
    0x90, 0x02, 0xae, 0x5e, 0xa2, 0x91, 0x8f, 0x0f, 0xd9, 0x88, 0xba, 0x6f,
    0xbe, 0x50, 0xab, 0x1d, 0xba, 0x10, 0xef, 0xb3, 0xd3, 0x81, 0x1b, 0x28,
    0xdd, 0x75, 0xf2, 0xc3, 0x4c, 0xfc, 0xdf, 0xf1, 0xd7, 0xe1, 0xf6, 0x47,
    0xc3, 0x9a, 0xc1, 0x34, 0x47, 0xd5, 0xf4, 0x05, 0xfc, 0x23, 0xcb, 0xad,
    0xcb, 0x20, 0x12, 0xf6, 0xd8, 0xa9, 0x13, 0xf9, 0x1c, 0x06, 0x3a, 0xfa,
    0x25, 0x26, 0xf1, 0xfd, 0x8b, 0x16, 0x15, 0xcf, 0xb8, 0xe1, 0x0d, 0x45,
    0x4e, 0xa7, 0xeb, 0xf7, 0xf5, 0x56, 0x0b, 0xec, 0x09, 0xbd, 0x09, 0xdd,
    0x0e, 0xa1, 0xcc, 0x57, 0x4e, 0x09, 0xfe, 0xe9, 0x26, 0xfc, 0xff, 0xff,
    0x04, 0x00, 0x00, 0x00, 0x80, 0x00, 0x00, 0x00, 0x3b, 0xfe, 0xff, 0xff,
    0x49, 0x00, 0x00, 0x00, 0x06, 0x00, 0x00, 0x00, 0x4f, 0xff, 0xff, 0xff,
    0x8d, 0x02, 0x00, 0x00, 0x26, 0x01, 0x00, 0x00, 0x27, 0x01, 0x00, 0x00,
    0xf8, 0x01, 0x00, 0x00, 0x65, 0x01, 0x00, 0x00, 0x04, 0xfe, 0xff, 0xff,
    0xc3, 0x00, 0x00, 0x00, 0x1e, 0x04, 0x00, 0x00, 0x05, 0xff, 0xff, 0xff,
    0xf5, 0x02, 0x00, 0x00, 0xb9, 0x02, 0x00, 0x00, 0x8d, 0xfd, 0xff, 0xff,
    0x67, 0xff, 0xff, 0xff, 0x9f, 0xfe, 0xff, 0xff, 0x45, 0x01, 0x00, 0x00,
    0xab, 0xff, 0xff, 0xff, 0x70, 0xff, 0xff, 0xff, 0xb4, 0xfe, 0xff, 0xff,
    0xec, 0x01, 0x00, 0x00, 0x25, 0x02, 0x00, 0x00, 0x8b, 0xfd, 0xff, 0xff,
    0x61, 0xfd, 0xff, 0xff, 0xe3, 0xfb, 0xff, 0xff, 0x64, 0x01, 0x00, 0x00,
    0x68, 0x00, 0x00, 0x00, 0x5f, 0xff, 0xff, 0xff, 0x02, 0x00, 0x00, 0x00,
    0xc7, 0xfc, 0xff, 0xff, 0xb2, 0xfc, 0xff, 0xff, 0x04, 0x00, 0x00, 0x00,
    0x20, 0x00, 0x00, 0x00, 0x4c, 0x56, 0x2b, 0x47, 0xe9, 0x00, 0xfa, 0xf4,
    0x49, 0x4a, 0xe9, 0x14, 0x0a, 0xf5, 0xf9, 0x6e, 0x3c, 0x63, 0x36, 0xfe,
    0x5c, 0xf3, 0xfe, 0xfd, 0x6e, 0x5b, 0x7f, 0x06, 0x03, 0x75, 0x16, 0x25,
    0xde, 0xfc, 0xff, 0xff, 0x04, 0x00, 0x00, 0x00, 0x20, 0x00, 0x00, 0x00,
    0xe6, 0xf6, 0xf0, 0x38, 0x80, 0x23, 0xf9, 0xb6, 0xef, 0xe5, 0x35, 0xa2,
    0xed, 0xbf, 0xbb, 0x32, 0xeb, 0xe4, 0x22, 0x1a, 0x1c, 0x25, 0x25, 0xad,
    0x10, 0x01, 0xe5, 0x1a, 0x2e, 0x0b, 0xfc, 0xea, 0x0a, 0xfd, 0xff, 0xff,
    0x04, 0x00, 0x00, 0x00, 0x00, 0x02, 0x00, 0x00, 0xfb, 0xbf, 0xda, 0xa7,
    0x26, 0x50, 0x52, 0x65, 0x03, 0xa1, 0xe9, 0x1f, 0x37, 0x6b, 0x57, 0xbd,
    0x38, 0xd9, 0x81, 0xaf, 0xa4, 0x18, 0x18, 0x48, 0x1f, 0xde, 0xf8, 0x0a,
    0xf7, 0x1e, 0x25, 0x35, 0x81, 0x1e, 0x33, 0x12, 0x21, 0xf6, 0xfa, 0xf1,
    0xce, 0x0e, 0x0a, 0x40, 0xe2, 0xbe, 0x1e, 0xd9, 0xf1, 0x35, 0xa1, 0x3c,
    0xc4, 0x05, 0x1d, 0x43, 0x40, 0x0a, 0x1b, 0xc4, 0x11, 0xb8, 0xf9, 0xfe,
    0x76, 0xd3, 0xa7, 0xee, 0xb2, 0x2d, 0xe2, 0x0e, 0xf6, 0x81, 0xdb, 0x9e,
    0x24, 0x2c, 0x24, 0x65, 0xbe, 0xb7, 0x46, 0xa1, 0x4d, 0xca, 0x1d, 0xaa,
    0xe6, 0x9f, 0xac, 0x1a, 0x5a, 0x36, 0xd4, 0xd7, 0x2e, 0xc6, 0xd1, 0x67,
    0xca, 0x0c, 0xff, 0x15, 0xbe, 0xc4, 0x56, 0xcf, 0x4e, 0x03, 0xdd, 0xce,
    0xcf, 0x81, 0x34, 0xb3, 0x15, 0x18, 0x3d, 0x18, 0x02, 0x44, 0xa5, 0x26,
    0xeb, 0x4c, 0xe9, 0xc4, 0x28, 0xee, 0x1a, 0x92, 0x07, 0xff, 0x1b, 0x36,
    0xcc, 0xd8, 0xe1, 0xed, 0x1d, 0xfe, 0x1f, 0x81, 0xa4, 0x8c, 0xdf, 0xae,
    0x05, 0xd6, 0x02, 0x18, 0xde, 0x02, 0x0c, 0xef, 0xeb, 0x8e, 0x0a, 0x28,
    0xb8, 0xf5, 0x15, 0xb5, 0x04, 0xff, 0xfd, 0x00, 0xd9, 0x13, 0xe4, 0x18,
    0xa5, 0xef, 0xd9, 0x0d, 0xd5, 0x3d, 0xe6, 0xe8, 0x18, 0x33, 0xfa, 0x21,
    0x3d, 0x50, 0xf3, 0xcb, 0x1a, 0x81, 0x48, 0xd7, 0x07, 0xba, 0xcc, 0xcb,
    0x6f, 0x4c, 0x36, 0x2d, 0x0a, 0xd4, 0x11, 0x35, 0xe0, 0x44, 0x4c, 0xfc,
    0x1a, 0xed, 0x81, 0xd0, 0xb5, 0xe5, 0xf3, 0xf5, 0x27, 0x9e, 0xd2, 0xae,
    0xae, 0xb5, 0xc3, 0x2a, 0xd7, 0x22, 0xe6, 0xb8, 0x05, 0x25, 0xdc, 0xe1,
    0x01, 0xfe, 0x42, 0x24, 0x97, 0xf3, 0x1b, 0x44, 0xe3, 0x1b, 0xf5, 0xe5,
    0xe6, 0xff, 0xc3, 0x28, 0x13, 0x02, 0x0e, 0xf1, 0xdc, 0x81, 0xde, 0xf7,
    0x4f, 0xe2, 0xb7, 0xf9, 0xcb, 0x5a, 0xa7, 0xed, 0x20, 0xd0, 0x3e, 0xa7,
    0xc4, 0x54, 0xec, 0xf1, 0xd0, 0xcb, 0xbb, 0xc6, 0xdd, 0x3c, 0xf0, 0x90,
    0x49, 0xeb, 0x8b, 0x18, 0x10, 0xeb, 0x1f, 0x81, 0x27, 0xf9, 0xd0, 0xae,
    0x5b, 0xed, 0x49, 0xf7, 0x56, 0xf9, 0x09, 0xdc, 0xf4, 0x14, 0xcd, 0xb6,
    0xc1, 0x51, 0x5c, 0x2e, 0xa6, 0x25, 0x42, 0x11, 0x33, 0xfd, 0xe1, 0xd9,
    0xbc, 0x81, 0x6f, 0xeb, 0x88, 0x66, 0xdd, 0x27, 0xdc, 0xb3, 0x3f, 0xa4,
    0x32, 0x59, 0xa4, 0x15, 0xd6, 0x09, 0xce, 0x0c, 0x7f, 0x29, 0x2f, 0xc5,
    0xb3, 0xc9, 0xbf, 0x99, 0x49, 0xa2, 0xe3, 0x97, 0xa1, 0xf8, 0x96, 0xa9,
    0x1a, 0x4c, 0xcc, 0xe3, 0xba, 0x91, 0xd8, 0xe7, 0x56, 0xbb, 0xca, 0xc3,
    0xdc, 0xfa, 0xdd, 0xce, 0xdf, 0x12, 0xd9, 0x4e, 0xf5, 0x93, 0x81, 0xeb,
    0xeb, 0x2b, 0xbc, 0xb1, 0x86, 0x3c, 0x8b, 0xc8, 0x70, 0x74, 0xf7, 0x28,
    0xad, 0x16, 0xf5, 0x41, 0x76, 0xb7, 0x35, 0x45, 0x18, 0xd9, 0xb4, 0x32,
    0x38, 0x4d, 0x3e, 0x2a, 0x6d, 0x1a, 0x7f, 0x3c, 0x19, 0x28, 0x53, 0x5a,
    0xf2, 0xba, 0xd3, 0x57, 0xfc, 0x17, 0x0a, 0x28, 0xf0, 0xcb, 0xdb, 0x17,
    0x7f, 0x3b, 0xcf, 0xd7, 0xff, 0xf0, 0xf1, 0x09, 0xe8, 0x2c, 0x43, 0x01,
    0x46, 0x21, 0xc3, 0xc6, 0x11, 0x21, 0xae, 0xc9, 0xdd, 0x30, 0xa4, 0xfe,
    0xd3, 0xf8, 0x5b, 0xae, 0xd3, 0x9d, 0x17, 0x3e, 0x30, 0xbd, 0x81, 0xbf,
    0xfa, 0x47, 0x6f, 0xb0, 0x0a, 0xc5, 0xda, 0xb7, 0x18, 0xd1, 0x9b, 0x34,
    0xf3, 0x16, 0xc7, 0xe2, 0xb3, 0xb0, 0xd9, 0xc5, 0xd1, 0xe1, 0xa7, 0x26,
    0x4f, 0x21, 0xc9, 0x38, 0xd2, 0x66, 0x2c, 0x46, 0xdb, 0x45, 0x26, 0x10,
    0xe5, 0x57, 0xcf, 0xf3, 0x81, 0xfb, 0xfc, 0x0c, 0xa8, 0xbb, 0xd2, 0x08,
    0x3e, 0x43, 0x20, 0xa6, 0x16, 0xff, 0xff, 0xff, 0x04, 0x00, 0x00, 0x00,
    0x40, 0x00, 0x00, 0x00, 0x59, 0x02, 0x00, 0x00, 0xdc, 0xf8, 0xff, 0xff,
    0xde, 0x06, 0x00, 0x00, 0x84, 0x0d, 0x00, 0x00, 0x2a, 0x00, 0x00, 0x00,
    0xd9, 0x08, 0x00, 0x00, 0x84, 0xfe, 0xff, 0xff, 0x77, 0x01, 0x00, 0x00,
    0x52, 0x07, 0x00, 0x00, 0x2a, 0x03, 0x00, 0x00, 0xf7, 0x01, 0x00, 0x00,
    0x64, 0x06, 0x00, 0x00, 0x39, 0xf9, 0xff, 0xff, 0x8d, 0x02, 0x00, 0x00,
    0x4f, 0x00, 0x00, 0x00, 0x92, 0xfb, 0xff, 0xff, 0x62, 0xff, 0xff, 0xff,
    0x04, 0x00, 0x00, 0x00, 0x10, 0x00, 0x00, 0x00, 0x81, 0x29, 0x57, 0x48,
    0xab, 0x5c, 0xd0, 0x1b, 0x3f, 0x06, 0x89, 0x9c, 0xd8, 0xc1, 0x88, 0x90,
    0x7e, 0xff, 0xff, 0xff, 0x04, 0x00, 0x00, 0x00, 0x04, 0x00, 0x00, 0x00,
    0x49, 0x02, 0x00, 0x00, 0x8e, 0xff, 0xff, 0xff, 0x04, 0x00, 0x00, 0x00,
    0x0c, 0x00, 0x00, 0x00, 0xff, 0xff, 0xff, 0xff, 0x33, 0x00, 0x00, 0x00,
    0x20, 0x00, 0x00, 0x00, 0xa6, 0xff, 0xff, 0xff, 0x04, 0x00, 0x00, 0x00,
    0x0c, 0x00, 0x00, 0x00, 0xff, 0xff, 0xff, 0xff, 0x67, 0x00, 0x00, 0x00,
    0x20, 0x00, 0x00, 0x00, 0xbe, 0xff, 0xff, 0xff, 0x04, 0x00, 0x00, 0x00,
    0x0c, 0x00, 0x00, 0x00, 0xff, 0xff, 0xff, 0xff, 0x67, 0x00, 0x00, 0x00,
    0x10, 0x00, 0x00, 0x00, 0xd6, 0xff, 0xff, 0xff, 0x04, 0x00, 0x00, 0x00,
    0x04, 0x00, 0x00, 0x00, 0x01, 0x00, 0x00, 0x00, 0xe6, 0xff, 0xff, 0xff,
    0x04, 0x00, 0x00, 0x00, 0x0c, 0x00, 0x00, 0x00, 0xff, 0xff, 0xff, 0xff,
    0xce, 0x00, 0x00, 0x00, 0x10, 0x00, 0x00, 0x00, 0x00, 0x00, 0x06, 0x00,
    0x08, 0x00, 0x04, 0x00, 0x06, 0x00, 0x00, 0x00, 0x04, 0x00, 0x00, 0x00,
    0x04, 0x00, 0x00, 0x00, 0xfd, 0xff, 0xff, 0xff, 0x10, 0xd4, 0xff, 0xff,
    0x14, 0xd4, 0xff, 0xff, 0x0f, 0x00, 0x00, 0x00, 0x4d, 0x4c, 0x49, 0x52,
    0x20, 0x43, 0x6f, 0x6e, 0x76, 0x65, 0x72, 0x74, 0x65, 0x64, 0x2e, 0x00,
    0x01, 0x00, 0x00, 0x00, 0x14, 0x00, 0x00, 0x00, 0x00, 0x00, 0x0e, 0x00,
    0x18, 0x00, 0x14, 0x00, 0x10, 0x00, 0x0c, 0x00, 0x08, 0x00, 0x04, 0x00,
    0x0e, 0x00, 0x00, 0x00, 0x14, 0x00, 0x00, 0x00, 0x1c, 0x00, 0x00, 0x00,
    0x7c, 0x05, 0x00, 0x00, 0x80, 0x05, 0x00, 0x00, 0x84, 0x05, 0x00, 0x00,
    0x04, 0x00, 0x00, 0x00, 0x6d, 0x61, 0x69, 0x6e, 0x00, 0x00, 0x00, 0x00,
    0x19, 0x00, 0x00, 0x00, 0x34, 0x05, 0x00, 0x00, 0xd4, 0x04, 0x00, 0x00,
    0x90, 0x04, 0x00, 0x00, 0x5c, 0x04, 0x00, 0x00, 0x34, 0x04, 0x00, 0x00,
    0xf8, 0x03, 0x00, 0x00, 0xa4, 0x03, 0x00, 0x00, 0x7c, 0x03, 0x00, 0x00,
    0x4c, 0x03, 0x00, 0x00, 0x08, 0x03, 0x00, 0x00, 0xd4, 0x02, 0x00, 0x00,
    0xa0, 0x02, 0x00, 0x00, 0x78, 0x02, 0x00, 0x00, 0x48, 0x02, 0x00, 0x00,
    0x04, 0x02, 0x00, 0x00, 0xdc, 0x01, 0x00, 0x00, 0xac, 0x01, 0x00, 0x00,
    0x68, 0x01, 0x00, 0x00, 0x34, 0x01, 0x00, 0x00, 0x00, 0x01, 0x00, 0x00,
    0xd8, 0x00, 0x00, 0x00, 0xa4, 0x00, 0x00, 0x00, 0x60, 0x00, 0x00, 0x00,
    0x28, 0x00, 0x00, 0x00, 0x04, 0x00, 0x00, 0x00, 0x2a, 0xfc, 0xff, 0xff,
    0x0c, 0x00, 0x00, 0x00, 0x10, 0x00, 0x00, 0x00, 0x08, 0x00, 0x00, 0x00,
    0x01, 0x00, 0x00, 0x00, 0x2f, 0x00, 0x00, 0x00, 0x01, 0x00, 0x00, 0x00,
    0x2e, 0x00, 0x00, 0x00, 0xba, 0xfb, 0xff, 0xff, 0x14, 0x00, 0x00, 0x00,
    0x00, 0x00, 0x00, 0x08, 0x10, 0x00, 0x00, 0x00, 0x14, 0x00, 0x00, 0x00,
    0x07, 0x00, 0x00, 0x00, 0x08, 0xd5, 0xff, 0xff, 0x01, 0x00, 0x00, 0x00,
    0x2e, 0x00, 0x00, 0x00, 0x03, 0x00, 0x00, 0x00, 0x2d, 0x00, 0x00, 0x00,
    0x08, 0x00, 0x00, 0x00, 0x07, 0x00, 0x00, 0x00, 0xee, 0xfb, 0xff, 0xff,
    0x1c, 0x00, 0x00, 0x00, 0x00, 0x00, 0x00, 0x08, 0x1c, 0x00, 0x00, 0x00,
    0x20, 0x00, 0x00, 0x00, 0x07, 0x00, 0x00, 0x00, 0x00, 0x00, 0x06, 0x00,
    0x08, 0x00, 0x07, 0x00, 0x06, 0x00, 0x00, 0x00, 0x00, 0x00, 0x00, 0x01,
    0x01, 0x00, 0x00, 0x00, 0x2d, 0x00, 0x00, 0x00, 0x03, 0x00, 0x00, 0x00,
    0x2c, 0x00, 0x00, 0x00, 0x0a, 0x00, 0x00, 0x00, 0x09, 0x00, 0x00, 0x00,
    0x2e, 0xfc, 0xff, 0xff, 0x14, 0x00, 0x00, 0x00, 0x00, 0x00, 0x00, 0x1b,
    0x10, 0x00, 0x00, 0x00, 0x14, 0x00, 0x00, 0x00, 0x06, 0x00, 0x00, 0x00,
    0x7c, 0xd5, 0xff, 0xff, 0x01, 0x00, 0x00, 0x00, 0x2c, 0x00, 0x00, 0x00,
    0x02, 0x00, 0x00, 0x00, 0x2b, 0x00, 0x00, 0x00, 0x03, 0x00, 0x00, 0x00,
    0xee, 0xfc, 0xff, 0xff, 0x0c, 0x00, 0x00, 0x00, 0x10, 0x00, 0x00, 0x00,
    0x04, 0x00, 0x00, 0x00, 0x01, 0x00, 0x00, 0x00, 0x2b, 0x00, 0x00, 0x00,
    0x02, 0x00, 0x00, 0x00, 0x2a, 0x00, 0x00, 0x00, 0x06, 0x00, 0x00, 0x00,
    0x82, 0xfc, 0xff, 0xff, 0x14, 0x00, 0x00, 0x00, 0x00, 0x00, 0x00, 0x0b,
    0x10, 0x00, 0x00, 0x00, 0x14, 0x00, 0x00, 0x00, 0x03, 0x00, 0x00, 0x00,
    0xd0, 0xd5, 0xff, 0xff, 0x01, 0x00, 0x00, 0x00, 0x2a, 0x00, 0x00, 0x00,
    0x02, 0x00, 0x00, 0x00, 0x29, 0x00, 0x00, 0x00, 0x0b, 0x00, 0x00, 0x00,
    0xb2, 0xfc, 0xff, 0xff, 0x14, 0x00, 0x00, 0x00, 0x00, 0x00, 0x00, 0x15,
    0x10, 0x00, 0x00, 0x00, 0x14, 0x00, 0x00, 0x00, 0x02, 0x00, 0x00, 0x00,
    0x00, 0xd6, 0xff, 0xff, 0x01, 0x00, 0x00, 0x00, 0x29, 0x00, 0x00, 0x00,
    0x02, 0x00, 0x00, 0x00, 0x28, 0x00, 0x00, 0x00, 0x0c, 0x00, 0x00, 0x00,
    0xe2, 0xfc, 0xff, 0xff, 0x14, 0x00, 0x00, 0x00, 0x00, 0x00, 0x00, 0x01,
    0x1c, 0x00, 0x00, 0x00, 0x20, 0x00, 0x00, 0x00, 0x01, 0x00, 0x00, 0x00,
    0xd4, 0xfc, 0xff, 0xff, 0x00, 0x00, 0x00, 0x01, 0x01, 0x00, 0x00, 0x00,
    0x01, 0x00, 0x00, 0x00, 0x01, 0x00, 0x00, 0x00, 0x28, 0x00, 0x00, 0x00,
    0x03, 0x00, 0x00, 0x00, 0x27, 0x00, 0x00, 0x00, 0x0e, 0x00, 0x00, 0x00,
    0x0d, 0x00, 0x00, 0x00, 0xc6, 0xfc, 0xff, 0xff, 0x10, 0x00, 0x00, 0x00,
    0x00, 0x00, 0x00, 0x34, 0x0c, 0x00, 0x00, 0x00, 0x10, 0x00, 0x00, 0x00,
    0x6c, 0xd6, 0xff, 0xff, 0x01, 0x00, 0x00, 0x00, 0x27, 0x00, 0x00, 0x00,
    0x02, 0x00, 0x00, 0x00, 0x26, 0x00, 0x00, 0x00, 0x01, 0x00, 0x00, 0x00,
    0xde, 0xfd, 0xff, 0xff, 0x0c, 0x00, 0x00, 0x00, 0x10, 0x00, 0x00, 0x00,
    0x04, 0x00, 0x00, 0x00, 0x01, 0x00, 0x00, 0x00, 0x26, 0x00, 0x00, 0x00,
    0x02, 0x00, 0x00, 0x00, 0x25, 0x00, 0x00, 0x00, 0x06, 0x00, 0x00, 0x00,
    0x72, 0xfd, 0xff, 0xff, 0x14, 0x00, 0x00, 0x00, 0x00, 0x00, 0x00, 0x05,
    0x24, 0x00, 0x00, 0x00, 0x28, 0x00, 0x00, 0x00, 0x05, 0x00, 0x00, 0x00,
    0x7e, 0xfe, 0xff, 0xff, 0x01, 0x00, 0x00, 0x00, 0x02, 0x00, 0x00, 0x00,
    0x01, 0x00, 0x00, 0x00, 0x02, 0x00, 0x00, 0x00, 0x00, 0x00, 0x00, 0x01,
    0x01, 0x00, 0x00, 0x00, 0x25, 0x00, 0x00, 0x00, 0x01, 0x00, 0x00, 0x00,
    0x24, 0x00, 0x00, 0x00, 0x56, 0xfd, 0xff, 0xff, 0x10, 0x00, 0x00, 0x00,
    0x00, 0x00, 0x00, 0x34, 0x0c, 0x00, 0x00, 0x00, 0x10, 0x00, 0x00, 0x00,
    0xfc, 0xd6, 0xff, 0xff, 0x01, 0x00, 0x00, 0x00, 0x24, 0x00, 0x00, 0x00,
    0x02, 0x00, 0x00, 0x00, 0x23, 0x00, 0x00, 0x00, 0x03, 0x00, 0x00, 0x00,
    0x6e, 0xfe, 0xff, 0xff, 0x0c, 0x00, 0x00, 0x00, 0x10, 0x00, 0x00, 0x00,
    0x04, 0x00, 0x00, 0x00, 0x01, 0x00, 0x00, 0x00, 0x23, 0x00, 0x00, 0x00,
    0x02, 0x00, 0x00, 0x00, 0x22, 0x00, 0x00, 0x00, 0x05, 0x00, 0x00, 0x00,
    0x02, 0xfe, 0xff, 0xff, 0x14, 0x00, 0x00, 0x00, 0x00, 0x00, 0x00, 0x0b,
    0x10, 0x00, 0x00, 0x00, 0x14, 0x00, 0x00, 0x00, 0x03, 0x00, 0x00, 0x00,
    0x50, 0xd7, 0xff, 0xff, 0x01, 0x00, 0x00, 0x00, 0x22, 0x00, 0x00, 0x00,
    0x02, 0x00, 0x00, 0x00, 0x21, 0x00, 0x00, 0x00, 0x0f, 0x00, 0x00, 0x00,
    0x32, 0xfe, 0xff, 0xff, 0x14, 0x00, 0x00, 0x00, 0x00, 0x00, 0x00, 0x15,
    0x10, 0x00, 0x00, 0x00, 0x14, 0x00, 0x00, 0x00, 0x02, 0x00, 0x00, 0x00,
    0x80, 0xd7, 0xff, 0xff, 0x01, 0x00, 0x00, 0x00, 0x21, 0x00, 0x00, 0x00,
    0x02, 0x00, 0x00, 0x00, 0x20, 0x00, 0x00, 0x00, 0x10, 0x00, 0x00, 0x00,
    0x62, 0xfe, 0xff, 0xff, 0x14, 0x00, 0x00, 0x00, 0x00, 0x00, 0x00, 0x01,
    0x1c, 0x00, 0x00, 0x00, 0x20, 0x00, 0x00, 0x00, 0x01, 0x00, 0x00, 0x00,
    0x54, 0xfe, 0xff, 0xff, 0x00, 0x00, 0x00, 0x01, 0x01, 0x00, 0x00, 0x00,
    0x01, 0x00, 0x00, 0x00, 0x01, 0x00, 0x00, 0x00, 0x20, 0x00, 0x00, 0x00,
    0x03, 0x00, 0x00, 0x00, 0x1f, 0x00, 0x00, 0x00, 0x12, 0x00, 0x00, 0x00,
    0x11, 0x00, 0x00, 0x00, 0x46, 0xfe, 0xff, 0xff, 0x10, 0x00, 0x00, 0x00,
    0x00, 0x00, 0x00, 0x34, 0x0c, 0x00, 0x00, 0x00, 0x10, 0x00, 0x00, 0x00,
    0xec, 0xd7, 0xff, 0xff, 0x01, 0x00, 0x00, 0x00, 0x1f, 0x00, 0x00, 0x00,
    0x02, 0x00, 0x00, 0x00, 0x1e, 0x00, 0x00, 0x00, 0x01, 0x00, 0x00, 0x00,
    0x5e, 0xff, 0xff, 0xff, 0x0c, 0x00, 0x00, 0x00, 0x10, 0x00, 0x00, 0x00,
    0x04, 0x00, 0x00, 0x00, 0x01, 0x00, 0x00, 0x00, 0x1e, 0x00, 0x00, 0x00,
    0x02, 0x00, 0x00, 0x00, 0x1d, 0x00, 0x00, 0x00, 0x04, 0x00, 0x00, 0x00,
    0xf2, 0xfe, 0xff, 0xff, 0x24, 0x00, 0x00, 0x00, 0x00, 0x00, 0x00, 0x05,
    0x34, 0x00, 0x00, 0x00, 0x38, 0x00, 0x00, 0x00, 0x05, 0x00, 0x00, 0x00,
    0x00, 0x00, 0x0e, 0x00, 0x18, 0x00, 0x17, 0x00, 0x10, 0x00, 0x0c, 0x00,
    0x08, 0x00, 0x04, 0x00, 0x0e, 0x00, 0x00, 0x00, 0x01, 0x00, 0x00, 0x00,
    0x02, 0x00, 0x00, 0x00, 0x01, 0x00, 0x00, 0x00, 0x02, 0x00, 0x00, 0x00,
    0x00, 0x00, 0x00, 0x01, 0x01, 0x00, 0x00, 0x00, 0x1d, 0x00, 0x00, 0x00,
    0x01, 0x00, 0x00, 0x00, 0x1c, 0x00, 0x00, 0x00, 0xe6, 0xfe, 0xff, 0xff,
    0x10, 0x00, 0x00, 0x00, 0x00, 0x00, 0x00, 0x34, 0x0c, 0x00, 0x00, 0x00,
    0x10, 0x00, 0x00, 0x00, 0x8c, 0xd8, 0xff, 0xff, 0x01, 0x00, 0x00, 0x00,
    0x1c, 0x00, 0x00, 0x00, 0x02, 0x00, 0x00, 0x00, 0x1b, 0x00, 0x00, 0x00,
    0x03, 0x00, 0x00, 0x00, 0x00, 0x00, 0x0a, 0x00, 0x10, 0x00, 0x0c, 0x00,
    0x08, 0x00, 0x04, 0x00, 0x0a, 0x00, 0x00, 0x00, 0x0c, 0x00, 0x00, 0x00,
    0x10, 0x00, 0x00, 0x00, 0x04, 0x00, 0x00, 0x00, 0x01, 0x00, 0x00, 0x00,
    0x1b, 0x00, 0x00, 0x00, 0x02, 0x00, 0x00, 0x00, 0x1a, 0x00, 0x00, 0x00,
    0x02, 0x00, 0x00, 0x00, 0x9e, 0xff, 0xff, 0xff, 0x14, 0x00, 0x00, 0x00,
    0x00, 0x00, 0x00, 0x0b, 0x10, 0x00, 0x00, 0x00, 0x14, 0x00, 0x00, 0x00,
    0x03, 0x00, 0x00, 0x00, 0xec, 0xd8, 0xff, 0xff, 0x01, 0x00, 0x00, 0x00,
    0x1a, 0x00, 0x00, 0x00, 0x02, 0x00, 0x00, 0x00, 0x19, 0x00, 0x00, 0x00,
    0x13, 0x00, 0x00, 0x00, 0xce, 0xff, 0xff, 0xff, 0x14, 0x00, 0x00, 0x00,
    0x00, 0x00, 0x00, 0x15, 0x10, 0x00, 0x00, 0x00, 0x14, 0x00, 0x00, 0x00,
    0x02, 0x00, 0x00, 0x00, 0x1c, 0xd9, 0xff, 0xff, 0x01, 0x00, 0x00, 0x00,
    0x19, 0x00, 0x00, 0x00, 0x02, 0x00, 0x00, 0x00, 0x18, 0x00, 0x00, 0x00,
    0x14, 0x00, 0x00, 0x00, 0x00, 0x00, 0x0e, 0x00, 0x18, 0x00, 0x14, 0x00,
    0x10, 0x00, 0x0c, 0x00, 0x0b, 0x00, 0x04, 0x00, 0x0e, 0x00, 0x00, 0x00,
    0x20, 0x00, 0x00, 0x00, 0x00, 0x00, 0x00, 0x01, 0x28, 0x00, 0x00, 0x00,
    0x2c, 0x00, 0x00, 0x00, 0x01, 0x00, 0x00, 0x00, 0x0c, 0x00, 0x10, 0x00,
    0x00, 0x00, 0x0c, 0x00, 0x08, 0x00, 0x07, 0x00, 0x0c, 0x00, 0x00, 0x00,
    0x00, 0x00, 0x00, 0x01, 0x01, 0x00, 0x00, 0x00, 0x01, 0x00, 0x00, 0x00,
    0x01, 0x00, 0x00, 0x00, 0x18, 0x00, 0x00, 0x00, 0x03, 0x00, 0x00, 0x00,
    0x17, 0x00, 0x00, 0x00, 0x16, 0x00, 0x00, 0x00, 0x15, 0x00, 0x00, 0x00,
    0x00, 0x00, 0x0e, 0x00, 0x14, 0x00, 0x00, 0x00, 0x10, 0x00, 0x0c, 0x00,
    0x0b, 0x00, 0x04, 0x00, 0x0e, 0x00, 0x00, 0x00, 0x10, 0x00, 0x00, 0x00,
    0x00, 0x00, 0x00, 0x34, 0x0c, 0x00, 0x00, 0x00, 0x10, 0x00, 0x00, 0x00,
    0xb4, 0xd9, 0xff, 0xff, 0x01, 0x00, 0x00, 0x00, 0x17, 0x00, 0x00, 0x00,
    0x02, 0x00, 0x00, 0x00, 0x00, 0x00, 0x00, 0x00, 0x01, 0x00, 0x00, 0x00,
    0x01, 0x00, 0x00, 0x00, 0x2f, 0x00, 0x00, 0x00, 0x01, 0x00, 0x00, 0x00,
    0x00, 0x00, 0x00, 0x00, 0x30, 0x00, 0x00, 0x00, 0x58, 0x26, 0x00, 0x00,
    0x00, 0x26, 0x00, 0x00, 0xa8, 0x25, 0x00, 0x00, 0x6c, 0x25, 0x00, 0x00,
    0x2c, 0x25, 0x00, 0x00, 0xec, 0x24, 0x00, 0x00, 0xac, 0x24, 0x00, 0x00,
    0x4c, 0x24, 0x00, 0x00, 0xe8, 0x23, 0x00, 0x00, 0xd4, 0x22, 0x00, 0x00,
    0xb8, 0x21, 0x00, 0x00, 0x54, 0x21, 0x00, 0x00, 0xf0, 0x20, 0x00, 0x00,
    0x1c, 0x1f, 0x00, 0x00, 0x38, 0x1d, 0x00, 0x00, 0xd4, 0x1c, 0x00, 0x00,
    0x70, 0x1c, 0x00, 0x00, 0x9c, 0x1a, 0x00, 0x00, 0xb8, 0x18, 0x00, 0x00,
    0x54, 0x18, 0x00, 0x00, 0xf0, 0x17, 0x00, 0x00, 0xdc, 0x16, 0x00, 0x00,
    0xb8, 0x15, 0x00, 0x00, 0x14, 0x15, 0x00, 0x00, 0x18, 0x14, 0x00, 0x00,
    0x0c, 0x13, 0x00, 0x00, 0xd0, 0x11, 0x00, 0x00, 0x98, 0x10, 0x00, 0x00,
    0xf0, 0x0f, 0x00, 0x00, 0x54, 0x0f, 0x00, 0x00, 0xbc, 0x0e, 0x00, 0x00,
    0x1c, 0x0e, 0x00, 0x00, 0x18, 0x0d, 0x00, 0x00, 0x04, 0x0c, 0x00, 0x00,
    0xc0, 0x0a, 0x00, 0x00, 0x80, 0x09, 0x00, 0x00, 0xd8, 0x08, 0x00, 0x00,
    0x3c, 0x08, 0x00, 0x00, 0x9c, 0x07, 0x00, 0x00, 0xfc, 0x06, 0x00, 0x00,
    0xf8, 0x05, 0x00, 0x00, 0xe4, 0x04, 0x00, 0x00, 0xa0, 0x03, 0x00, 0x00,
    0x60, 0x02, 0x00, 0x00, 0xd0, 0x01, 0x00, 0x00, 0x1c, 0x01, 0x00, 0x00,
    0x80, 0x00, 0x00, 0x00, 0x04, 0x00, 0x00, 0x00, 0x7e, 0xda, 0xff, 0xff,
    0x00, 0x00, 0x00, 0x01, 0x18, 0x00, 0x00, 0x00, 0x20, 0x00, 0x00, 0x00,
    0x3c, 0x00, 0x00, 0x00, 0x30, 0x00, 0x00, 0x00, 0x00, 0x00, 0x00, 0x09,
    0x50, 0x00, 0x00, 0x00, 0x02, 0x00, 0x00, 0x00, 0xff, 0xff, 0xff, 0xff,
    0x01, 0x00, 0x00, 0x00, 0x64, 0xda, 0xff, 0xff, 0x08, 0x00, 0x00, 0x00,
    0x10, 0x00, 0x00, 0x00, 0x01, 0x00, 0x00, 0x00, 0x80, 0xff, 0xff, 0xff,
    0xff, 0xff, 0xff, 0xff, 0x01, 0x00, 0x00, 0x00, 0x00, 0x00, 0x80, 0x3b,
    0x1b, 0x00, 0x00, 0x00, 0x53, 0x74, 0x61, 0x74, 0x65, 0x66, 0x75, 0x6c,
    0x50, 0x61, 0x72, 0x74, 0x69, 0x74, 0x69, 0x6f, 0x6e, 0x65, 0x64, 0x43,
    0x61, 0x6c, 0x6c, 0x5f, 0x31, 0x3a, 0x30, 0x00, 0x02, 0x00, 0x00, 0x00,
    0x01, 0x00, 0x00, 0x00, 0x01, 0x00, 0x00, 0x00, 0xf6, 0xda, 0xff, 0xff,
    0x00, 0x00, 0x00, 0x01, 0x18, 0x00, 0x00, 0x00, 0x20, 0x00, 0x00, 0x00,
    0x3c, 0x00, 0x00, 0x00, 0x2f, 0x00, 0x00, 0x00, 0x00, 0x00, 0x00, 0x09,
    0x70, 0x00, 0x00, 0x00, 0x02, 0x00, 0x00, 0x00, 0xff, 0xff, 0xff, 0xff,
    0x01, 0x00, 0x00, 0x00, 0xdc, 0xda, 0xff, 0xff, 0x08, 0x00, 0x00, 0x00,
    0x10, 0x00, 0x00, 0x00, 0x01, 0x00, 0x00, 0x00, 0x1a, 0x00, 0x00, 0x00,
    0x00, 0x00, 0x00, 0x00, 0x01, 0x00, 0x00, 0x00, 0x73, 0x5b, 0xae, 0x3d,
    0x38, 0x00, 0x00, 0x00, 0x73, 0x65, 0x71, 0x75, 0x65, 0x6e, 0x74, 0x69,
    0x61, 0x6c, 0x5f, 0x31, 0x2f, 0x64, 0x65, 0x6e, 0x73, 0x65, 0x5f, 0x31,
    0x5f, 0x32, 0x2f, 0x4d, 0x61, 0x74, 0x4d, 0x75, 0x6c, 0x3b, 0x73, 0x65,
    0x71, 0x75, 0x65, 0x6e, 0x74, 0x69, 0x61, 0x6c, 0x5f, 0x31, 0x2f, 0x64,
    0x65, 0x6e, 0x73, 0x65, 0x5f, 0x31, 0x5f, 0x32, 0x2f, 0x41, 0x64, 0x64,
    0x00, 0x00, 0x00, 0x00, 0x02, 0x00, 0x00, 0x00, 0x01, 0x00, 0x00, 0x00,
    0x01, 0x00, 0x00, 0x00, 0x8e, 0xdb, 0xff, 0xff, 0x00, 0x00, 0x00, 0x01,
    0x18, 0x00, 0x00, 0x00, 0x20, 0x00, 0x00, 0x00, 0x3c, 0x00, 0x00, 0x00,
    0x2e, 0x00, 0x00, 0x00, 0x00, 0x00, 0x00, 0x09, 0x88, 0x00, 0x00, 0x00,
    0x02, 0x00, 0x00, 0x00, 0xff, 0xff, 0xff, 0xff, 0x10, 0x00, 0x00, 0x00,
    0x74, 0xdb, 0xff, 0xff, 0x08, 0x00, 0x00, 0x00, 0x10, 0x00, 0x00, 0x00,
    0x01, 0x00, 0x00, 0x00, 0x80, 0xff, 0xff, 0xff, 0xff, 0xff, 0xff, 0xff,
    0x01, 0x00, 0x00, 0x00, 0x77, 0xd3, 0x17, 0x3d, 0x52, 0x00, 0x00, 0x00,
    0x73, 0x65, 0x71, 0x75, 0x65, 0x6e, 0x74, 0x69, 0x61, 0x6c, 0x5f, 0x31,
    0x2f, 0x64, 0x65, 0x6e, 0x73, 0x65, 0x5f, 0x31, 0x2f, 0x4d, 0x61, 0x74,
    0x4d, 0x75, 0x6c, 0x3b, 0x73, 0x65, 0x71, 0x75, 0x65, 0x6e, 0x74, 0x69,
    0x61, 0x6c, 0x5f, 0x31, 0x2f, 0x64, 0x65, 0x6e, 0x73, 0x65, 0x5f, 0x31,
    0x2f, 0x52, 0x65, 0x6c, 0x75, 0x3b, 0x73, 0x65, 0x71, 0x75, 0x65, 0x6e,
    0x74, 0x69, 0x61, 0x6c, 0x5f, 0x31, 0x2f, 0x64, 0x65, 0x6e, 0x73, 0x65,
    0x5f, 0x31, 0x2f, 0x42, 0x69, 0x61, 0x73, 0x41, 0x64, 0x64, 0x00, 0x00,
    0x02, 0x00, 0x00, 0x00, 0x01, 0x00, 0x00, 0x00, 0x10, 0x00, 0x00, 0x00,
    0x3e, 0xdc, 0xff, 0xff, 0x00, 0x00, 0x00, 0x01, 0x18, 0x00, 0x00, 0x00,
    0x20, 0x00, 0x00, 0x00, 0x3c, 0x00, 0x00, 0x00, 0x2d, 0x00, 0x00, 0x00,
    0x00, 0x00, 0x00, 0x09, 0x64, 0x00, 0x00, 0x00, 0x02, 0x00, 0x00, 0x00,
    0xff, 0xff, 0xff, 0xff, 0x20, 0x00, 0x00, 0x00, 0x24, 0xdc, 0xff, 0xff,
    0x08, 0x00, 0x00, 0x00, 0x10, 0x00, 0x00, 0x00, 0x01, 0x00, 0x00, 0x00,
    0xbf, 0xff, 0xff, 0xff, 0xff, 0xff, 0xff, 0xff, 0x01, 0x00, 0x00, 0x00,
    0xf3, 0x3a, 0xab, 0x3c, 0x2c, 0x00, 0x00, 0x00, 0x73, 0x65, 0x71, 0x75,
    0x65, 0x6e, 0x74, 0x69, 0x61, 0x6c, 0x5f, 0x31, 0x2f, 0x67, 0x6c, 0x6f,
    0x62, 0x61, 0x6c, 0x5f, 0x61, 0x76, 0x65, 0x72, 0x61, 0x67, 0x65, 0x5f,
    0x70, 0x6f, 0x6f, 0x6c, 0x69, 0x6e, 0x67, 0x31, 0x64, 0x5f, 0x31, 0x2f,
    0x4d, 0x65, 0x61, 0x6e, 0x00, 0x00, 0x00, 0x00, 0x02, 0x00, 0x00, 0x00,
    0x01, 0x00, 0x00, 0x00, 0x20, 0x00, 0x00, 0x00, 0xca, 0xdc, 0xff, 0xff,
    0x00, 0x00, 0x00, 0x01, 0x18, 0x00, 0x00, 0x00, 0x24, 0x00, 0x00, 0x00,
    0x40, 0x00, 0x00, 0x00, 0x2c, 0x00, 0x00, 0x00, 0x00, 0x00, 0x00, 0x09,
    0x10, 0x01, 0x00, 0x00, 0x03, 0x00, 0x00, 0x00, 0xff, 0xff, 0xff, 0xff,
    0x33, 0x00, 0x00, 0x00, 0x20, 0x00, 0x00, 0x00, 0xb4, 0xdc, 0xff, 0xff,
    0x08, 0x00, 0x00, 0x00, 0x10, 0x00, 0x00, 0x00, 0x01, 0x00, 0x00, 0x00,
    0x97, 0xff, 0xff, 0xff, 0xff, 0xff, 0xff, 0xff, 0x01, 0x00, 0x00, 0x00,
    0x34, 0x0c, 0x6d, 0x3d, 0xd4, 0x00, 0x00, 0x00, 0x73, 0x65, 0x71, 0x75,
    0x65, 0x6e, 0x74, 0x69, 0x61, 0x6c, 0x5f, 0x31, 0x2f, 0x62, 0x61, 0x74,
    0x63, 0x68, 0x5f, 0x6e, 0x6f, 0x72, 0x6d, 0x61, 0x6c, 0x69, 0x7a, 0x61,
    0x74, 0x69, 0x6f, 0x6e, 0x5f, 0x32, 0x5f, 0x31, 0x2f, 0x62, 0x61, 0x74,
    0x63, 0x68, 0x6e, 0x6f, 0x72, 0x6d, 0x2f, 0x61, 0x64, 0x64, 0x5f, 0x31,
    0x3b, 0x73, 0x65, 0x71, 0x75, 0x65, 0x6e, 0x74, 0x69, 0x61, 0x6c, 0x5f,
    0x31, 0x2f, 0x63, 0x6f, 0x6e, 0x76, 0x31, 0x64, 0x5f, 0x32, 0x5f, 0x31,
    0x2f, 0x63, 0x6f, 0x6e, 0x76, 0x6f, 0x6c, 0x75, 0x74, 0x69, 0x6f, 0x6e,
    0x2f, 0x53, 0x71, 0x75, 0x65, 0x65, 0x7a, 0x65, 0x3b, 0x73, 0x65, 0x71,
    0x75, 0x65, 0x6e, 0x74, 0x69, 0x61, 0x6c, 0x5f, 0x31, 0x2f, 0x62, 0x61,
    0x74, 0x63, 0x68, 0x5f, 0x6e, 0x6f, 0x72, 0x6d, 0x61, 0x6c, 0x69, 0x7a,
    0x61, 0x74, 0x69, 0x6f, 0x6e, 0x5f, 0x32, 0x5f, 0x31, 0x2f, 0x62, 0x61,
    0x74, 0x63, 0x68, 0x6e, 0x6f, 0x72, 0x6d, 0x2f, 0x6d, 0x75, 0x6c, 0x5f,
    0x31, 0x3b, 0x73, 0x65, 0x71, 0x75, 0x65, 0x6e, 0x74, 0x69, 0x61, 0x6c,
    0x5f, 0x31, 0x2f, 0x63, 0x6f, 0x6e, 0x76, 0x31, 0x64, 0x5f, 0x32, 0x5f,
    0x31, 0x2f, 0x52, 0x65, 0x6c, 0x75, 0x3b, 0x73, 0x65, 0x71, 0x75, 0x65,
    0x6e, 0x74, 0x69, 0x61, 0x6c, 0x5f, 0x31, 0x2f, 0x63, 0x6f, 0x6e, 0x76,
    0x31, 0x64, 0x5f, 0x32, 0x5f, 0x31, 0x2f, 0x42, 0x69, 0x61, 0x73, 0x41,
    0x64, 0x64, 0x3b, 0x31, 0x00, 0x00, 0x00, 0x00, 0x03, 0x00, 0x00, 0x00,
    0x01, 0x00, 0x00, 0x00, 0x33, 0x00, 0x00, 0x00, 0x20, 0x00, 0x00, 0x00,
    0x06, 0xde, 0xff, 0xff, 0x00, 0x00, 0x00, 0x01, 0x18, 0x00, 0x00, 0x00,
    0x28, 0x00, 0x00, 0x00, 0x44, 0x00, 0x00, 0x00, 0x2b, 0x00, 0x00, 0x00,
    0x00, 0x00, 0x00, 0x09, 0x10, 0x01, 0x00, 0x00, 0x04, 0x00, 0x00, 0x00,
    0xff, 0xff, 0xff, 0xff, 0x01, 0x00, 0x00, 0x00, 0x33, 0x00, 0x00, 0x00,
    0x20, 0x00, 0x00, 0x00, 0xf4, 0xdd, 0xff, 0xff, 0x08, 0x00, 0x00, 0x00,
    0x10, 0x00, 0x00, 0x00, 0x01, 0x00, 0x00, 0x00, 0x97, 0xff, 0xff, 0xff,
    0xff, 0xff, 0xff, 0xff, 0x01, 0x00, 0x00, 0x00, 0x34, 0x0c, 0x6d, 0x3d,
    0xd3, 0x00, 0x00, 0x00, 0x73, 0x65, 0x71, 0x75, 0x65, 0x6e, 0x74, 0x69,
    0x61, 0x6c, 0x5f, 0x31, 0x2f, 0x62, 0x61, 0x74, 0x63, 0x68, 0x5f, 0x6e,
    0x6f, 0x72, 0x6d, 0x61, 0x6c, 0x69, 0x7a, 0x61, 0x74, 0x69, 0x6f, 0x6e,
    0x5f, 0x32, 0x5f, 0x31, 0x2f, 0x62, 0x61, 0x74, 0x63, 0x68, 0x6e, 0x6f,
    0x72, 0x6d, 0x2f, 0x61, 0x64, 0x64, 0x5f, 0x31, 0x3b, 0x73, 0x65, 0x71,
    0x75, 0x65, 0x6e, 0x74, 0x69, 0x61, 0x6c, 0x5f, 0x31, 0x2f, 0x63, 0x6f,
    0x6e, 0x76, 0x31, 0x64, 0x5f, 0x32, 0x5f, 0x31, 0x2f, 0x63, 0x6f, 0x6e,
    0x76, 0x6f, 0x6c, 0x75, 0x74, 0x69, 0x6f, 0x6e, 0x2f, 0x53, 0x71, 0x75,
    0x65, 0x65, 0x7a, 0x65, 0x3b, 0x73, 0x65, 0x71, 0x75, 0x65, 0x6e, 0x74,
    0x69, 0x61, 0x6c, 0x5f, 0x31, 0x2f, 0x62, 0x61, 0x74, 0x63, 0x68, 0x5f,
    0x6e, 0x6f, 0x72, 0x6d, 0x61, 0x6c, 0x69, 0x7a, 0x61, 0x74, 0x69, 0x6f,
    0x6e, 0x5f, 0x32, 0x5f, 0x31, 0x2f, 0x62, 0x61, 0x74, 0x63, 0x68, 0x6e,
    0x6f, 0x72, 0x6d, 0x2f, 0x6d, 0x75, 0x6c, 0x5f, 0x31, 0x3b, 0x73, 0x65,
    0x71, 0x75, 0x65, 0x6e, 0x74, 0x69, 0x61, 0x6c, 0x5f, 0x31, 0x2f, 0x63,
    0x6f, 0x6e, 0x76, 0x31, 0x64, 0x5f, 0x32, 0x5f, 0x31, 0x2f, 0x52, 0x65,
    0x6c, 0x75, 0x3b, 0x73, 0x65, 0x71, 0x75, 0x65, 0x6e, 0x74, 0x69, 0x61,
    0x6c, 0x5f, 0x31, 0x2f, 0x63, 0x6f, 0x6e, 0x76, 0x31, 0x64, 0x5f, 0x32,
    0x5f, 0x31, 0x2f, 0x42, 0x69, 0x61, 0x73, 0x41, 0x64, 0x64, 0x3b, 0x00,
    0x04, 0x00, 0x00, 0x00, 0x01, 0x00, 0x00, 0x00, 0x01, 0x00, 0x00, 0x00,
    0x33, 0x00, 0x00, 0x00, 0x20, 0x00, 0x00, 0x00, 0x46, 0xdf, 0xff, 0xff,
    0x00, 0x00, 0x00, 0x01, 0x18, 0x00, 0x00, 0x00, 0x28, 0x00, 0x00, 0x00,
    0x48, 0x00, 0x00, 0x00, 0x2a, 0x00, 0x00, 0x00, 0x00, 0x00, 0x00, 0x09,
    0xe0, 0x00, 0x00, 0x00, 0x04, 0x00, 0x00, 0x00, 0xff, 0xff, 0xff, 0xff,
    0x01, 0x00, 0x00, 0x00, 0x33, 0x00, 0x00, 0x00, 0x20, 0x00, 0x00, 0x00,
    0x34, 0xdf, 0xff, 0xff, 0x08, 0x00, 0x00, 0x00, 0x14, 0x00, 0x00, 0x00,
    0x01, 0x00, 0x00, 0x00, 0x96, 0xff, 0xff, 0xff, 0xff, 0xff, 0xff, 0xff,
    0x00, 0x00, 0x00, 0x00, 0x01, 0x00, 0x00, 0x00, 0xe1, 0x73, 0x73, 0x3d,
    0x9e, 0x00, 0x00, 0x00, 0x73, 0x65, 0x71, 0x75, 0x65, 0x6e, 0x74, 0x69,
    0x61, 0x6c, 0x5f, 0x31, 0x2f, 0x62, 0x61, 0x74, 0x63, 0x68, 0x5f, 0x6e,
    0x6f, 0x72, 0x6d, 0x61, 0x6c, 0x69, 0x7a, 0x61, 0x74, 0x69, 0x6f, 0x6e,
    0x5f, 0x32, 0x5f, 0x31, 0x2f, 0x62, 0x61, 0x74, 0x63, 0x68, 0x6e, 0x6f,
    0x72, 0x6d, 0x2f, 0x6d, 0x75, 0x6c, 0x5f, 0x31, 0x3b, 0x73, 0x65, 0x71,
    0x75, 0x65, 0x6e, 0x74, 0x69, 0x61, 0x6c, 0x5f, 0x31, 0x2f, 0x63, 0x6f,
    0x6e, 0x76, 0x31, 0x64, 0x5f, 0x32, 0x5f, 0x31, 0x2f, 0x63, 0x6f, 0x6e,
    0x76, 0x6f, 0x6c, 0x75, 0x74, 0x69, 0x6f, 0x6e, 0x2f, 0x53, 0x71, 0x75,
    0x65, 0x65, 0x7a, 0x65, 0x3b, 0x73, 0x65, 0x71, 0x75, 0x65, 0x6e, 0x74,
    0x69, 0x61, 0x6c, 0x5f, 0x31, 0x2f, 0x63, 0x6f, 0x6e, 0x76, 0x31, 0x64,
    0x5f, 0x32, 0x5f, 0x31, 0x2f, 0x52, 0x65, 0x6c, 0x75, 0x3b, 0x73, 0x65,
    0x71, 0x75, 0x65, 0x6e, 0x74, 0x69, 0x61, 0x6c, 0x5f, 0x31, 0x2f, 0x63,
    0x6f, 0x6e, 0x76, 0x31, 0x64, 0x5f, 0x32, 0x5f, 0x31, 0x2f, 0x42, 0x69,
    0x61, 0x73, 0x41, 0x64, 0x64, 0x3b, 0x00, 0x00, 0x04, 0x00, 0x00, 0x00,
    0x01, 0x00, 0x00, 0x00, 0x01, 0x00, 0x00, 0x00, 0x33, 0x00, 0x00, 0x00,
    0x20, 0x00, 0x00, 0x00, 0x56, 0xe0, 0xff, 0xff, 0x00, 0x00, 0x00, 0x01,
    0x18, 0x00, 0x00, 0x00, 0x28, 0x00, 0x00, 0x00, 0x48, 0x00, 0x00, 0x00,
    0x29, 0x00, 0x00, 0x00, 0x00, 0x00, 0x00, 0x09, 0xd0, 0x00, 0x00, 0x00,
    0x04, 0x00, 0x00, 0x00, 0xff, 0xff, 0xff, 0xff, 0x01, 0x00, 0x00, 0x00,
    0x33, 0x00, 0x00, 0x00, 0x20, 0x00, 0x00, 0x00, 0x44, 0xe0, 0xff, 0xff,
    0x08, 0x00, 0x00, 0x00, 0x14, 0x00, 0x00, 0x00, 0x01, 0x00, 0x00, 0x00,
    0x80, 0xff, 0xff, 0xff, 0xff, 0xff, 0xff, 0xff, 0x00, 0x00, 0x00, 0x00,
    0x01, 0x00, 0x00, 0x00, 0xf6, 0xaf, 0xa9, 0x3d, 0x8d, 0x00, 0x00, 0x00,
    0x73, 0x65, 0x71, 0x75, 0x65, 0x6e, 0x74, 0x69, 0x61, 0x6c, 0x5f, 0x31,
    0x2f, 0x63, 0x6f, 0x6e, 0x76, 0x31, 0x64, 0x5f, 0x32, 0x5f, 0x31, 0x2f,
    0x52, 0x65, 0x6c, 0x75, 0x3b, 0x73, 0x65, 0x71, 0x75, 0x65, 0x6e, 0x74,
    0x69, 0x61, 0x6c, 0x5f, 0x31, 0x2f, 0x63, 0x6f, 0x6e, 0x76, 0x31, 0x64,
    0x5f, 0x32, 0x5f, 0x31, 0x2f, 0x42, 0x69, 0x61, 0x73, 0x41, 0x64, 0x64,
    0x3b, 0x73, 0x65, 0x71, 0x75, 0x65, 0x6e, 0x74, 0x69, 0x61, 0x6c, 0x5f,
    0x31, 0x2f, 0x63, 0x6f, 0x6e, 0x76, 0x31, 0x64, 0x5f, 0x32, 0x5f, 0x31,
    0x2f, 0x63, 0x6f, 0x6e, 0x76, 0x6f, 0x6c, 0x75, 0x74, 0x69, 0x6f, 0x6e,
    0x2f, 0x53, 0x71, 0x75, 0x65, 0x65, 0x7a, 0x65, 0x3b, 0x3b, 0x73, 0x65,
    0x71, 0x75, 0x65, 0x6e, 0x74, 0x69, 0x61, 0x6c, 0x5f, 0x31, 0x2f, 0x63,
    0x6f, 0x6e, 0x76, 0x31, 0x64, 0x5f, 0x32, 0x5f, 0x31, 0x2f, 0x63, 0x6f,
    0x6e, 0x76, 0x6f, 0x6c, 0x75, 0x74, 0x69, 0x6f, 0x6e, 0x00, 0x00, 0x00,
    0x04, 0x00, 0x00, 0x00, 0x01, 0x00, 0x00, 0x00, 0x01, 0x00, 0x00, 0x00,
    0x33, 0x00, 0x00, 0x00, 0x20, 0x00, 0x00, 0x00, 0x56, 0xe1, 0xff, 0xff,
    0x00, 0x00, 0x00, 0x01, 0x18, 0x00, 0x00, 0x00, 0x28, 0x00, 0x00, 0x00,
    0x44, 0x00, 0x00, 0x00, 0x28, 0x00, 0x00, 0x00, 0x00, 0x00, 0x00, 0x09,
    0x6c, 0x00, 0x00, 0x00, 0x04, 0x00, 0x00, 0x00, 0xff, 0xff, 0xff, 0xff,
    0x01, 0x00, 0x00, 0x00, 0x33, 0x00, 0x00, 0x00, 0x20, 0x00, 0x00, 0x00,
    0x44, 0xe1, 0xff, 0xff, 0x08, 0x00, 0x00, 0x00, 0x10, 0x00, 0x00, 0x00,
    0x01, 0x00, 0x00, 0x00, 0x86, 0xff, 0xff, 0xff, 0xff, 0xff, 0xff, 0xff,
    0x01, 0x00, 0x00, 0x00, 0x5c, 0x23, 0xef, 0x3d, 0x2e, 0x00, 0x00, 0x00,
    0x73, 0x65, 0x71, 0x75, 0x65, 0x6e, 0x74, 0x69, 0x61, 0x6c, 0x5f, 0x31,
    0x2f, 0x63, 0x6f, 0x6e, 0x76, 0x31, 0x64, 0x5f, 0x32, 0x5f, 0x31, 0x2f,
    0x63, 0x6f, 0x6e, 0x76, 0x6f, 0x6c, 0x75, 0x74, 0x69, 0x6f, 0x6e, 0x2f,
    0x45, 0x78, 0x70, 0x61, 0x6e, 0x64, 0x44, 0x69, 0x6d, 0x73, 0x00, 0x00,
    0x04, 0x00, 0x00, 0x00, 0x01, 0x00, 0x00, 0x00, 0x01, 0x00, 0x00, 0x00,
    0x33, 0x00, 0x00, 0x00, 0x20, 0x00, 0x00, 0x00, 0xf2, 0xe1, 0xff, 0xff,
    0x00, 0x00, 0x00, 0x01, 0x18, 0x00, 0x00, 0x00, 0x24, 0x00, 0x00, 0x00,
    0x44, 0x00, 0x00, 0x00, 0x27, 0x00, 0x00, 0x00, 0x00, 0x00, 0x00, 0x09,
    0x70, 0x00, 0x00, 0x00, 0x03, 0x00, 0x00, 0x00, 0xff, 0xff, 0xff, 0xff,
    0x33, 0x00, 0x00, 0x00, 0x20, 0x00, 0x00, 0x00, 0xdc, 0xe1, 0xff, 0xff,
    0x08, 0x00, 0x00, 0x00, 0x14, 0x00, 0x00, 0x00, 0x01, 0x00, 0x00, 0x00,
    0x86, 0xff, 0xff, 0xff, 0xff, 0xff, 0xff, 0xff, 0x00, 0x00, 0x00, 0x00,
    0x01, 0x00, 0x00, 0x00, 0x5c, 0x23, 0xef, 0x3d, 0x30, 0x00, 0x00, 0x00,
    0x73, 0x65, 0x71, 0x75, 0x65, 0x6e, 0x74, 0x69, 0x61, 0x6c, 0x5f, 0x31,
    0x2f, 0x6d, 0x61, 0x78, 0x5f, 0x70, 0x6f, 0x6f, 0x6c, 0x69, 0x6e, 0x67,
    0x31, 0x64, 0x5f, 0x31, 0x5f, 0x32, 0x2f, 0x4d, 0x61, 0x78, 0x50, 0x6f,
    0x6f, 0x6c, 0x31, 0x64, 0x2f, 0x53, 0x71, 0x75, 0x65, 0x65, 0x7a, 0x65,
    0x00, 0x00, 0x00, 0x00, 0x03, 0x00, 0x00, 0x00, 0x01, 0x00, 0x00, 0x00,
    0x33, 0x00, 0x00, 0x00, 0x20, 0x00, 0x00, 0x00, 0x8e, 0xe2, 0xff, 0xff,
    0x00, 0x00, 0x00, 0x01, 0x18, 0x00, 0x00, 0x00, 0x28, 0x00, 0x00, 0x00,
    0x44, 0x00, 0x00, 0x00, 0x26, 0x00, 0x00, 0x00, 0x00, 0x00, 0x00, 0x09,
    0x68, 0x00, 0x00, 0x00, 0x04, 0x00, 0x00, 0x00, 0xff, 0xff, 0xff, 0xff,
    0x01, 0x00, 0x00, 0x00, 0x33, 0x00, 0x00, 0x00, 0x20, 0x00, 0x00, 0x00,
    0x7c, 0xe2, 0xff, 0xff, 0x08, 0x00, 0x00, 0x00, 0x10, 0x00, 0x00, 0x00,
    0x01, 0x00, 0x00, 0x00, 0x86, 0xff, 0xff, 0xff, 0xff, 0xff, 0xff, 0xff,
    0x01, 0x00, 0x00, 0x00, 0x5c, 0x23, 0xef, 0x3d, 0x28, 0x00, 0x00, 0x00,
    0x73, 0x65, 0x71, 0x75, 0x65, 0x6e, 0x74, 0x69, 0x61, 0x6c, 0x5f, 0x31,
    0x2f, 0x6d, 0x61, 0x78, 0x5f, 0x70, 0x6f, 0x6f, 0x6c, 0x69, 0x6e, 0x67,
    0x31, 0x64, 0x5f, 0x31, 0x5f, 0x32, 0x2f, 0x4d, 0x61, 0x78, 0x50, 0x6f,
    0x6f, 0x6c, 0x31, 0x64, 0x00, 0x00, 0x00, 0x00, 0x04, 0x00, 0x00, 0x00,
    0x01, 0x00, 0x00, 0x00, 0x01, 0x00, 0x00, 0x00, 0x33, 0x00, 0x00, 0x00,
    0x20, 0x00, 0x00, 0x00, 0x26, 0xe3, 0xff, 0xff, 0x00, 0x00, 0x00, 0x01,
    0x18, 0x00, 0x00, 0x00, 0x28, 0x00, 0x00, 0x00, 0x48, 0x00, 0x00, 0x00,
    0x25, 0x00, 0x00, 0x00, 0x00, 0x00, 0x00, 0x09, 0x74, 0x00, 0x00, 0x00,
    0x04, 0x00, 0x00, 0x00, 0xff, 0xff, 0xff, 0xff, 0x01, 0x00, 0x00, 0x00,
    0x67, 0x00, 0x00, 0x00, 0x20, 0x00, 0x00, 0x00, 0x14, 0xe3, 0xff, 0xff,
    0x08, 0x00, 0x00, 0x00, 0x14, 0x00, 0x00, 0x00, 0x01, 0x00, 0x00, 0x00,
    0x86, 0xff, 0xff, 0xff, 0xff, 0xff, 0xff, 0xff, 0x00, 0x00, 0x00, 0x00,
    0x01, 0x00, 0x00, 0x00, 0x5c, 0x23, 0xef, 0x3d, 0x33, 0x00, 0x00, 0x00,
    0x73, 0x65, 0x71, 0x75, 0x65, 0x6e, 0x74, 0x69, 0x61, 0x6c, 0x5f, 0x31,
    0x2f, 0x6d, 0x61, 0x78, 0x5f, 0x70, 0x6f, 0x6f, 0x6c, 0x69, 0x6e, 0x67,
    0x31, 0x64, 0x5f, 0x31, 0x5f, 0x32, 0x2f, 0x4d, 0x61, 0x78, 0x50, 0x6f,
    0x6f, 0x6c, 0x31, 0x64, 0x2f, 0x45, 0x78, 0x70, 0x61, 0x6e, 0x64, 0x44,
    0x69, 0x6d, 0x73, 0x00, 0x04, 0x00, 0x00, 0x00, 0x01, 0x00, 0x00, 0x00,
    0x01, 0x00, 0x00, 0x00, 0x67, 0x00, 0x00, 0x00, 0x20, 0x00, 0x00, 0x00,
    0xca, 0xe3, 0xff, 0xff, 0x00, 0x00, 0x00, 0x01, 0x18, 0x00, 0x00, 0x00,
    0x24, 0x00, 0x00, 0x00, 0x40, 0x00, 0x00, 0x00, 0x24, 0x00, 0x00, 0x00,
    0x00, 0x00, 0x00, 0x09, 0x10, 0x01, 0x00, 0x00, 0x03, 0x00, 0x00, 0x00,
    0xff, 0xff, 0xff, 0xff, 0x67, 0x00, 0x00, 0x00, 0x20, 0x00, 0x00, 0x00,
    0xb4, 0xe3, 0xff, 0xff, 0x08, 0x00, 0x00, 0x00, 0x10, 0x00, 0x00, 0x00,
    0x01, 0x00, 0x00, 0x00, 0x86, 0xff, 0xff, 0xff, 0xff, 0xff, 0xff, 0xff,
    0x01, 0x00, 0x00, 0x00, 0x5c, 0x23, 0xef, 0x3d, 0xd4, 0x00, 0x00, 0x00,
    0x73, 0x65, 0x71, 0x75, 0x65, 0x6e, 0x74, 0x69, 0x61, 0x6c, 0x5f, 0x31,
    0x2f, 0x62, 0x61, 0x74, 0x63, 0x68, 0x5f, 0x6e, 0x6f, 0x72, 0x6d, 0x61,
    0x6c, 0x69, 0x7a, 0x61, 0x74, 0x69, 0x6f, 0x6e, 0x5f, 0x31, 0x5f, 0x32,
    0x2f, 0x62, 0x61, 0x74, 0x63, 0x68, 0x6e, 0x6f, 0x72, 0x6d, 0x2f, 0x61,
    0x64, 0x64, 0x5f, 0x31, 0x3b, 0x73, 0x65, 0x71, 0x75, 0x65, 0x6e, 0x74,
    0x69, 0x61, 0x6c, 0x5f, 0x31, 0x2f, 0x63, 0x6f, 0x6e, 0x76, 0x31, 0x64,
    0x5f, 0x31, 0x5f, 0x32, 0x2f, 0x63, 0x6f, 0x6e, 0x76, 0x6f, 0x6c, 0x75,
    0x74, 0x69, 0x6f, 0x6e, 0x2f, 0x53, 0x71, 0x75, 0x65, 0x65, 0x7a, 0x65,
    0x3b, 0x73, 0x65, 0x71, 0x75, 0x65, 0x6e, 0x74, 0x69, 0x61, 0x6c, 0x5f,
    0x31, 0x2f, 0x62, 0x61, 0x74, 0x63, 0x68, 0x5f, 0x6e, 0x6f, 0x72, 0x6d,
    0x61, 0x6c, 0x69, 0x7a, 0x61, 0x74, 0x69, 0x6f, 0x6e, 0x5f, 0x31, 0x5f,
    0x32, 0x2f, 0x62, 0x61, 0x74, 0x63, 0x68, 0x6e, 0x6f, 0x72, 0x6d, 0x2f,
    0x6d, 0x75, 0x6c, 0x5f, 0x31, 0x3b, 0x73, 0x65, 0x71, 0x75, 0x65, 0x6e,
    0x74, 0x69, 0x61, 0x6c, 0x5f, 0x31, 0x2f, 0x63, 0x6f, 0x6e, 0x76, 0x31,
    0x64, 0x5f, 0x31, 0x5f, 0x32, 0x2f, 0x52, 0x65, 0x6c, 0x75, 0x3b, 0x73,
    0x65, 0x71, 0x75, 0x65, 0x6e, 0x74, 0x69, 0x61, 0x6c, 0x5f, 0x31, 0x2f,
    0x63, 0x6f, 0x6e, 0x76, 0x31, 0x64, 0x5f, 0x31, 0x5f, 0x32, 0x2f, 0x42,
    0x69, 0x61, 0x73, 0x41, 0x64, 0x64, 0x3b, 0x31, 0x00, 0x00, 0x00, 0x00,
    0x03, 0x00, 0x00, 0x00, 0x01, 0x00, 0x00, 0x00, 0x67, 0x00, 0x00, 0x00,
    0x20, 0x00, 0x00, 0x00, 0x06, 0xe5, 0xff, 0xff, 0x00, 0x00, 0x00, 0x01,
    0x18, 0x00, 0x00, 0x00, 0x28, 0x00, 0x00, 0x00, 0x44, 0x00, 0x00, 0x00,
    0x23, 0x00, 0x00, 0x00, 0x00, 0x00, 0x00, 0x09, 0x10, 0x01, 0x00, 0x00,
    0x04, 0x00, 0x00, 0x00, 0xff, 0xff, 0xff, 0xff, 0x01, 0x00, 0x00, 0x00,
    0x67, 0x00, 0x00, 0x00, 0x20, 0x00, 0x00, 0x00, 0xf4, 0xe4, 0xff, 0xff,
    0x08, 0x00, 0x00, 0x00, 0x10, 0x00, 0x00, 0x00, 0x01, 0x00, 0x00, 0x00,
    0x86, 0xff, 0xff, 0xff, 0xff, 0xff, 0xff, 0xff, 0x01, 0x00, 0x00, 0x00,
    0x5c, 0x23, 0xef, 0x3d, 0xd3, 0x00, 0x00, 0x00, 0x73, 0x65, 0x71, 0x75,
    0x65, 0x6e, 0x74, 0x69, 0x61, 0x6c, 0x5f, 0x31, 0x2f, 0x62, 0x61, 0x74,
    0x63, 0x68, 0x5f, 0x6e, 0x6f, 0x72, 0x6d, 0x61, 0x6c, 0x69, 0x7a, 0x61,
    0x74, 0x69, 0x6f, 0x6e, 0x5f, 0x31, 0x5f, 0x32, 0x2f, 0x62, 0x61, 0x74,
    0x63, 0x68, 0x6e, 0x6f, 0x72, 0x6d, 0x2f, 0x61, 0x64, 0x64, 0x5f, 0x31,
    0x3b, 0x73, 0x65, 0x71, 0x75, 0x65, 0x6e, 0x74, 0x69, 0x61, 0x6c, 0x5f,
    0x31, 0x2f, 0x63, 0x6f, 0x6e, 0x76, 0x31, 0x64, 0x5f, 0x31, 0x5f, 0x32,
    0x2f, 0x63, 0x6f, 0x6e, 0x76, 0x6f, 0x6c, 0x75, 0x74, 0x69, 0x6f, 0x6e,
    0x2f, 0x53, 0x71, 0x75, 0x65, 0x65, 0x7a, 0x65, 0x3b, 0x73, 0x65, 0x71,
    0x75, 0x65, 0x6e, 0x74, 0x69, 0x61, 0x6c, 0x5f, 0x31, 0x2f, 0x62, 0x61,
    0x74, 0x63, 0x68, 0x5f, 0x6e, 0x6f, 0x72, 0x6d, 0x61, 0x6c, 0x69, 0x7a,
    0x61, 0x74, 0x69, 0x6f, 0x6e, 0x5f, 0x31, 0x5f, 0x32, 0x2f, 0x62, 0x61,
    0x74, 0x63, 0x68, 0x6e, 0x6f, 0x72, 0x6d, 0x2f, 0x6d, 0x75, 0x6c, 0x5f,
    0x31, 0x3b, 0x73, 0x65, 0x71, 0x75, 0x65, 0x6e, 0x74, 0x69, 0x61, 0x6c,
    0x5f, 0x31, 0x2f, 0x63, 0x6f, 0x6e, 0x76, 0x31, 0x64, 0x5f, 0x31, 0x5f,
    0x32, 0x2f, 0x52, 0x65, 0x6c, 0x75, 0x3b, 0x73, 0x65, 0x71, 0x75, 0x65,
    0x6e, 0x74, 0x69, 0x61, 0x6c, 0x5f, 0x31, 0x2f, 0x63, 0x6f, 0x6e, 0x76,
    0x31, 0x64, 0x5f, 0x31, 0x5f, 0x32, 0x2f, 0x42, 0x69, 0x61, 0x73, 0x41,
    0x64, 0x64, 0x3b, 0x00, 0x04, 0x00, 0x00, 0x00, 0x01, 0x00, 0x00, 0x00,
    0x01, 0x00, 0x00, 0x00, 0x67, 0x00, 0x00, 0x00, 0x20, 0x00, 0x00, 0x00,
    0x46, 0xe6, 0xff, 0xff, 0x00, 0x00, 0x00, 0x01, 0x18, 0x00, 0x00, 0x00,
    0x28, 0x00, 0x00, 0x00, 0x48, 0x00, 0x00, 0x00, 0x22, 0x00, 0x00, 0x00,
    0x00, 0x00, 0x00, 0x09, 0xe0, 0x00, 0x00, 0x00, 0x04, 0x00, 0x00, 0x00,
    0xff, 0xff, 0xff, 0xff, 0x01, 0x00, 0x00, 0x00, 0x67, 0x00, 0x00, 0x00,
    0x20, 0x00, 0x00, 0x00, 0x34, 0xe6, 0xff, 0xff, 0x08, 0x00, 0x00, 0x00,
    0x14, 0x00, 0x00, 0x00, 0x01, 0x00, 0x00, 0x00, 0x86, 0xff, 0xff, 0xff,
    0xff, 0xff, 0xff, 0xff, 0x00, 0x00, 0x00, 0x00, 0x01, 0x00, 0x00, 0x00,
    0x06, 0x89, 0xf2, 0x3d, 0x9e, 0x00, 0x00, 0x00, 0x73, 0x65, 0x71, 0x75,
    0x65, 0x6e, 0x74, 0x69, 0x61, 0x6c, 0x5f, 0x31, 0x2f, 0x62, 0x61, 0x74,
    0x63, 0x68, 0x5f, 0x6e, 0x6f, 0x72, 0x6d, 0x61, 0x6c, 0x69, 0x7a, 0x61,
    0x74, 0x69, 0x6f, 0x6e, 0x5f, 0x31, 0x5f, 0x32, 0x2f, 0x62, 0x61, 0x74,
    0x63, 0x68, 0x6e, 0x6f, 0x72, 0x6d, 0x2f, 0x6d, 0x75, 0x6c, 0x5f, 0x31,
    0x3b, 0x73, 0x65, 0x71, 0x75, 0x65, 0x6e, 0x74, 0x69, 0x61, 0x6c, 0x5f,
    0x31, 0x2f, 0x63, 0x6f, 0x6e, 0x76, 0x31, 0x64, 0x5f, 0x31, 0x5f, 0x32,
    0x2f, 0x63, 0x6f, 0x6e, 0x76, 0x6f, 0x6c, 0x75, 0x74, 0x69, 0x6f, 0x6e,
    0x2f, 0x53, 0x71, 0x75, 0x65, 0x65, 0x7a, 0x65, 0x3b, 0x73, 0x65, 0x71,
    0x75, 0x65, 0x6e, 0x74, 0x69, 0x61, 0x6c, 0x5f, 0x31, 0x2f, 0x63, 0x6f,
    0x6e, 0x76, 0x31, 0x64, 0x5f, 0x31, 0x5f, 0x32, 0x2f, 0x52, 0x65, 0x6c,
    0x75, 0x3b, 0x73, 0x65, 0x71, 0x75, 0x65, 0x6e, 0x74, 0x69, 0x61, 0x6c,
    0x5f, 0x31, 0x2f, 0x63, 0x6f, 0x6e, 0x76, 0x31, 0x64, 0x5f, 0x31, 0x5f,
    0x32, 0x2f, 0x42, 0x69, 0x61, 0x73, 0x41, 0x64, 0x64, 0x3b, 0x00, 0x00,
    0x04, 0x00, 0x00, 0x00, 0x01, 0x00, 0x00, 0x00, 0x01, 0x00, 0x00, 0x00,
    0x67, 0x00, 0x00, 0x00, 0x20, 0x00, 0x00, 0x00, 0x56, 0xe7, 0xff, 0xff,
    0x00, 0x00, 0x00, 0x01, 0x18, 0x00, 0x00, 0x00, 0x28, 0x00, 0x00, 0x00,
    0x48, 0x00, 0x00, 0x00, 0x21, 0x00, 0x00, 0x00, 0x00, 0x00, 0x00, 0x09,
    0xd0, 0x00, 0x00, 0x00, 0x04, 0x00, 0x00, 0x00, 0xff, 0xff, 0xff, 0xff,
    0x01, 0x00, 0x00, 0x00, 0x67, 0x00, 0x00, 0x00, 0x20, 0x00, 0x00, 0x00,
    0x44, 0xe7, 0xff, 0xff, 0x08, 0x00, 0x00, 0x00, 0x14, 0x00, 0x00, 0x00,
    0x01, 0x00, 0x00, 0x00, 0x80, 0xff, 0xff, 0xff, 0xff, 0xff, 0xff, 0xff,
    0x00, 0x00, 0x00, 0x00, 0x01, 0x00, 0x00, 0x00, 0x96, 0x90, 0xf7, 0x3d,
    0x8d, 0x00, 0x00, 0x00, 0x73, 0x65, 0x71, 0x75, 0x65, 0x6e, 0x74, 0x69,
    0x61, 0x6c, 0x5f, 0x31, 0x2f, 0x63, 0x6f, 0x6e, 0x76, 0x31, 0x64, 0x5f,
    0x31, 0x5f, 0x32, 0x2f, 0x52, 0x65, 0x6c, 0x75, 0x3b, 0x73, 0x65, 0x71,
    0x75, 0x65, 0x6e, 0x74, 0x69, 0x61, 0x6c, 0x5f, 0x31, 0x2f, 0x63, 0x6f,
    0x6e, 0x76, 0x31, 0x64, 0x5f, 0x31, 0x5f, 0x32, 0x2f, 0x42, 0x69, 0x61,
    0x73, 0x41, 0x64, 0x64, 0x3b, 0x73, 0x65, 0x71, 0x75, 0x65, 0x6e, 0x74,
    0x69, 0x61, 0x6c, 0x5f, 0x31, 0x2f, 0x63, 0x6f, 0x6e, 0x76, 0x31, 0x64,
    0x5f, 0x31, 0x5f, 0x32, 0x2f, 0x63, 0x6f, 0x6e, 0x76, 0x6f, 0x6c, 0x75,
    0x74, 0x69, 0x6f, 0x6e, 0x2f, 0x53, 0x71, 0x75, 0x65, 0x65, 0x7a, 0x65,
    0x3b, 0x3b, 0x73, 0x65, 0x71, 0x75, 0x65, 0x6e, 0x74, 0x69, 0x61, 0x6c,
    0x5f, 0x31, 0x2f, 0x63, 0x6f, 0x6e, 0x76, 0x31, 0x64, 0x5f, 0x31, 0x5f,
    0x32, 0x2f, 0x63, 0x6f, 0x6e, 0x76, 0x6f, 0x6c, 0x75, 0x74, 0x69, 0x6f,
    0x6e, 0x00, 0x00, 0x00, 0x04, 0x00, 0x00, 0x00, 0x01, 0x00, 0x00, 0x00,
    0x01, 0x00, 0x00, 0x00, 0x67, 0x00, 0x00, 0x00, 0x20, 0x00, 0x00, 0x00,
    0x56, 0xe8, 0xff, 0xff, 0x00, 0x00, 0x00, 0x01, 0x18, 0x00, 0x00, 0x00,
    0x28, 0x00, 0x00, 0x00, 0x44, 0x00, 0x00, 0x00, 0x20, 0x00, 0x00, 0x00,
    0x00, 0x00, 0x00, 0x09, 0x6c, 0x00, 0x00, 0x00, 0x04, 0x00, 0x00, 0x00,
    0xff, 0xff, 0xff, 0xff, 0x01, 0x00, 0x00, 0x00, 0x67, 0x00, 0x00, 0x00,
    0x10, 0x00, 0x00, 0x00, 0x44, 0xe8, 0xff, 0xff, 0x08, 0x00, 0x00, 0x00,
    0x10, 0x00, 0x00, 0x00, 0x01, 0x00, 0x00, 0x00, 0x8c, 0xff, 0xff, 0xff,
    0xff, 0xff, 0xff, 0xff, 0x01, 0x00, 0x00, 0x00, 0x76, 0x4a, 0x4d, 0x3e,
    0x2e, 0x00, 0x00, 0x00, 0x73, 0x65, 0x71, 0x75, 0x65, 0x6e, 0x74, 0x69,
    0x61, 0x6c, 0x5f, 0x31, 0x2f, 0x63, 0x6f, 0x6e, 0x76, 0x31, 0x64, 0x5f,
    0x31, 0x5f, 0x32, 0x2f, 0x63, 0x6f, 0x6e, 0x76, 0x6f, 0x6c, 0x75, 0x74,
    0x69, 0x6f, 0x6e, 0x2f, 0x45, 0x78, 0x70, 0x61, 0x6e, 0x64, 0x44, 0x69,
    0x6d, 0x73, 0x00, 0x00, 0x04, 0x00, 0x00, 0x00, 0x01, 0x00, 0x00, 0x00,
    0x01, 0x00, 0x00, 0x00, 0x67, 0x00, 0x00, 0x00, 0x10, 0x00, 0x00, 0x00,
    0xf2, 0xe8, 0xff, 0xff, 0x00, 0x00, 0x00, 0x01, 0x18, 0x00, 0x00, 0x00,
    0x24, 0x00, 0x00, 0x00, 0x40, 0x00, 0x00, 0x00, 0x1f, 0x00, 0x00, 0x00,
    0x00, 0x00, 0x00, 0x09, 0x68, 0x00, 0x00, 0x00, 0x03, 0x00, 0x00, 0x00,
    0xff, 0xff, 0xff, 0xff, 0x67, 0x00, 0x00, 0x00, 0x10, 0x00, 0x00, 0x00,
    0xdc, 0xe8, 0xff, 0xff, 0x08, 0x00, 0x00, 0x00, 0x10, 0x00, 0x00, 0x00,
    0x01, 0x00, 0x00, 0x00, 0x8c, 0xff, 0xff, 0xff, 0xff, 0xff, 0xff, 0xff,
    0x01, 0x00, 0x00, 0x00, 0x76, 0x4a, 0x4d, 0x3e, 0x2e, 0x00, 0x00, 0x00,
    0x73, 0x65, 0x71, 0x75, 0x65, 0x6e, 0x74, 0x69, 0x61, 0x6c, 0x5f, 0x31,
    0x2f, 0x6d, 0x61, 0x78, 0x5f, 0x70, 0x6f, 0x6f, 0x6c, 0x69, 0x6e, 0x67,
    0x31, 0x64, 0x5f, 0x31, 0x2f, 0x4d, 0x61, 0x78, 0x50, 0x6f, 0x6f, 0x6c,
    0x31, 0x64, 0x2f, 0x53, 0x71, 0x75, 0x65, 0x65, 0x7a, 0x65, 0x00, 0x00,
    0x03, 0x00, 0x00, 0x00, 0x01, 0x00, 0x00, 0x00, 0x67, 0x00, 0x00, 0x00,
    0x10, 0x00, 0x00, 0x00, 0x86, 0xe9, 0xff, 0xff, 0x00, 0x00, 0x00, 0x01,
    0x18, 0x00, 0x00, 0x00, 0x28, 0x00, 0x00, 0x00, 0x48, 0x00, 0x00, 0x00,
    0x1e, 0x00, 0x00, 0x00, 0x00, 0x00, 0x00, 0x09, 0x68, 0x00, 0x00, 0x00,
    0x04, 0x00, 0x00, 0x00, 0xff, 0xff, 0xff, 0xff, 0x01, 0x00, 0x00, 0x00,
    0x67, 0x00, 0x00, 0x00, 0x10, 0x00, 0x00, 0x00, 0x74, 0xe9, 0xff, 0xff,
    0x08, 0x00, 0x00, 0x00, 0x14, 0x00, 0x00, 0x00, 0x01, 0x00, 0x00, 0x00,
    0x8c, 0xff, 0xff, 0xff, 0xff, 0xff, 0xff, 0xff, 0x00, 0x00, 0x00, 0x00,
    0x01, 0x00, 0x00, 0x00, 0x76, 0x4a, 0x4d, 0x3e, 0x26, 0x00, 0x00, 0x00,
    0x73, 0x65, 0x71, 0x75, 0x65, 0x6e, 0x74, 0x69, 0x61, 0x6c, 0x5f, 0x31,
    0x2f, 0x6d, 0x61, 0x78, 0x5f, 0x70, 0x6f, 0x6f, 0x6c, 0x69, 0x6e, 0x67,
    0x31, 0x64, 0x5f, 0x31, 0x2f, 0x4d, 0x61, 0x78, 0x50, 0x6f, 0x6f, 0x6c,
    0x31, 0x64, 0x00, 0x00, 0x04, 0x00, 0x00, 0x00, 0x01, 0x00, 0x00, 0x00,
    0x01, 0x00, 0x00, 0x00, 0x67, 0x00, 0x00, 0x00, 0x10, 0x00, 0x00, 0x00,
    0x1e, 0xea, 0xff, 0xff, 0x00, 0x00, 0x00, 0x01, 0x18, 0x00, 0x00, 0x00,
    0x28, 0x00, 0x00, 0x00, 0x48, 0x00, 0x00, 0x00, 0x1d, 0x00, 0x00, 0x00,
    0x00, 0x00, 0x00, 0x09, 0x74, 0x00, 0x00, 0x00, 0x04, 0x00, 0x00, 0x00,
    0xff, 0xff, 0xff, 0xff, 0x01, 0x00, 0x00, 0x00, 0xce, 0x00, 0x00, 0x00,
    0x10, 0x00, 0x00, 0x00, 0x0c, 0xea, 0xff, 0xff, 0x08, 0x00, 0x00, 0x00,
    0x14, 0x00, 0x00, 0x00, 0x01, 0x00, 0x00, 0x00, 0x8c, 0xff, 0xff, 0xff,
    0xff, 0xff, 0xff, 0xff, 0x00, 0x00, 0x00, 0x00, 0x01, 0x00, 0x00, 0x00,
    0x76, 0x4a, 0x4d, 0x3e, 0x31, 0x00, 0x00, 0x00, 0x73, 0x65, 0x71, 0x75,
    0x65, 0x6e, 0x74, 0x69, 0x61, 0x6c, 0x5f, 0x31, 0x2f, 0x6d, 0x61, 0x78,
    0x5f, 0x70, 0x6f, 0x6f, 0x6c, 0x69, 0x6e, 0x67, 0x31, 0x64, 0x5f, 0x31,
    0x2f, 0x4d, 0x61, 0x78, 0x50, 0x6f, 0x6f, 0x6c, 0x31, 0x64, 0x2f, 0x45,
    0x78, 0x70, 0x61, 0x6e, 0x64, 0x44, 0x69, 0x6d, 0x73, 0x00, 0x00, 0x00,
    0x04, 0x00, 0x00, 0x00, 0x01, 0x00, 0x00, 0x00, 0x01, 0x00, 0x00, 0x00,
    0xce, 0x00, 0x00, 0x00, 0x10, 0x00, 0x00, 0x00, 0xc2, 0xea, 0xff, 0xff,
    0x00, 0x00, 0x00, 0x01, 0x18, 0x00, 0x00, 0x00, 0x24, 0x00, 0x00, 0x00,
    0x44, 0x00, 0x00, 0x00, 0x1c, 0x00, 0x00, 0x00, 0x00, 0x00, 0x00, 0x09,
    0x08, 0x01, 0x00, 0x00, 0x03, 0x00, 0x00, 0x00, 0xff, 0xff, 0xff, 0xff,
    0xce, 0x00, 0x00, 0x00, 0x10, 0x00, 0x00, 0x00, 0xac, 0xea, 0xff, 0xff,
    0x08, 0x00, 0x00, 0x00, 0x14, 0x00, 0x00, 0x00, 0x01, 0x00, 0x00, 0x00,
    0x8c, 0xff, 0xff, 0xff, 0xff, 0xff, 0xff, 0xff, 0x00, 0x00, 0x00, 0x00,
    0x01, 0x00, 0x00, 0x00, 0x76, 0x4a, 0x4d, 0x3e, 0xca, 0x00, 0x00, 0x00,
    0x73, 0x65, 0x71, 0x75, 0x65, 0x6e, 0x74, 0x69, 0x61, 0x6c, 0x5f, 0x31,
    0x2f, 0x62, 0x61, 0x74, 0x63, 0x68, 0x5f, 0x6e, 0x6f, 0x72, 0x6d, 0x61,
    0x6c, 0x69, 0x7a, 0x61, 0x74, 0x69, 0x6f, 0x6e, 0x5f, 0x31, 0x2f, 0x62,
    0x61, 0x74, 0x63, 0x68, 0x6e, 0x6f, 0x72, 0x6d, 0x2f, 0x61, 0x64, 0x64,
    0x5f, 0x31, 0x3b, 0x73, 0x65, 0x71, 0x75, 0x65, 0x6e, 0x74, 0x69, 0x61,
    0x6c, 0x5f, 0x31, 0x2f, 0x63, 0x6f, 0x6e, 0x76, 0x31, 0x64, 0x5f, 0x31,
    0x2f, 0x63, 0x6f, 0x6e, 0x76, 0x6f, 0x6c, 0x75, 0x74, 0x69, 0x6f, 0x6e,
    0x2f, 0x53, 0x71, 0x75, 0x65, 0x65, 0x7a, 0x65, 0x3b, 0x73, 0x65, 0x71,
    0x75, 0x65, 0x6e, 0x74, 0x69, 0x61, 0x6c, 0x5f, 0x31, 0x2f, 0x62, 0x61,
    0x74, 0x63, 0x68, 0x5f, 0x6e, 0x6f, 0x72, 0x6d, 0x61, 0x6c, 0x69, 0x7a,
    0x61, 0x74, 0x69, 0x6f, 0x6e, 0x5f, 0x31, 0x2f, 0x62, 0x61, 0x74, 0x63,
    0x68, 0x6e, 0x6f, 0x72, 0x6d, 0x2f, 0x6d, 0x75, 0x6c, 0x5f, 0x31, 0x3b,
    0x73, 0x65, 0x71, 0x75, 0x65, 0x6e, 0x74, 0x69, 0x61, 0x6c, 0x5f, 0x31,
    0x2f, 0x63, 0x6f, 0x6e, 0x76, 0x31, 0x64, 0x5f, 0x31, 0x2f, 0x52, 0x65,
    0x6c, 0x75, 0x3b, 0x73, 0x65, 0x71, 0x75, 0x65, 0x6e, 0x74, 0x69, 0x61,
    0x6c, 0x5f, 0x31, 0x2f, 0x63, 0x6f, 0x6e, 0x76, 0x31, 0x64, 0x5f, 0x31,
    0x2f, 0x42, 0x69, 0x61, 0x73, 0x41, 0x64, 0x64, 0x3b, 0x31, 0x00, 0x00,
    0x03, 0x00, 0x00, 0x00, 0x01, 0x00, 0x00, 0x00, 0xce, 0x00, 0x00, 0x00,
    0x10, 0x00, 0x00, 0x00, 0xf6, 0xeb, 0xff, 0xff, 0x00, 0x00, 0x00, 0x01,
    0x18, 0x00, 0x00, 0x00, 0x28, 0x00, 0x00, 0x00, 0x44, 0x00, 0x00, 0x00,
    0x1b, 0x00, 0x00, 0x00, 0x00, 0x00, 0x00, 0x09, 0x08, 0x01, 0x00, 0x00,
    0x04, 0x00, 0x00, 0x00, 0xff, 0xff, 0xff, 0xff, 0x01, 0x00, 0x00, 0x00,
    0xce, 0x00, 0x00, 0x00, 0x10, 0x00, 0x00, 0x00, 0xe4, 0xeb, 0xff, 0xff,
    0x08, 0x00, 0x00, 0x00, 0x10, 0x00, 0x00, 0x00, 0x01, 0x00, 0x00, 0x00,
    0x8c, 0xff, 0xff, 0xff, 0xff, 0xff, 0xff, 0xff, 0x01, 0x00, 0x00, 0x00,
    0x76, 0x4a, 0x4d, 0x3e, 0xc9, 0x00, 0x00, 0x00, 0x73, 0x65, 0x71, 0x75,
    0x65, 0x6e, 0x74, 0x69, 0x61, 0x6c, 0x5f, 0x31, 0x2f, 0x62, 0x61, 0x74,
    0x63, 0x68, 0x5f, 0x6e, 0x6f, 0x72, 0x6d, 0x61, 0x6c, 0x69, 0x7a, 0x61,
    0x74, 0x69, 0x6f, 0x6e, 0x5f, 0x31, 0x2f, 0x62, 0x61, 0x74, 0x63, 0x68,
    0x6e, 0x6f, 0x72, 0x6d, 0x2f, 0x61, 0x64, 0x64, 0x5f, 0x31, 0x3b, 0x73,
    0x65, 0x71, 0x75, 0x65, 0x6e, 0x74, 0x69, 0x61, 0x6c, 0x5f, 0x31, 0x2f,
    0x63, 0x6f, 0x6e, 0x76, 0x31, 0x64, 0x5f, 0x31, 0x2f, 0x63, 0x6f, 0x6e,
    0x76, 0x6f, 0x6c, 0x75, 0x74, 0x69, 0x6f, 0x6e, 0x2f, 0x53, 0x71, 0x75,
    0x65, 0x65, 0x7a, 0x65, 0x3b, 0x73, 0x65, 0x71, 0x75, 0x65, 0x6e, 0x74,
    0x69, 0x61, 0x6c, 0x5f, 0x31, 0x2f, 0x62, 0x61, 0x74, 0x63, 0x68, 0x5f,
    0x6e, 0x6f, 0x72, 0x6d, 0x61, 0x6c, 0x69, 0x7a, 0x61, 0x74, 0x69, 0x6f,
    0x6e, 0x5f, 0x31, 0x2f, 0x62, 0x61, 0x74, 0x63, 0x68, 0x6e, 0x6f, 0x72,
    0x6d, 0x2f, 0x6d, 0x75, 0x6c, 0x5f, 0x31, 0x3b, 0x73, 0x65, 0x71, 0x75,
    0x65, 0x6e, 0x74, 0x69, 0x61, 0x6c, 0x5f, 0x31, 0x2f, 0x63, 0x6f, 0x6e,
    0x76, 0x31, 0x64, 0x5f, 0x31, 0x2f, 0x52, 0x65, 0x6c, 0x75, 0x3b, 0x73,
    0x65, 0x71, 0x75, 0x65, 0x6e, 0x74, 0x69, 0x61, 0x6c, 0x5f, 0x31, 0x2f,
    0x63, 0x6f, 0x6e, 0x76, 0x31, 0x64, 0x5f, 0x31, 0x2f, 0x42, 0x69, 0x61,
    0x73, 0x41, 0x64, 0x64, 0x3b, 0x00, 0x00, 0x00, 0x04, 0x00, 0x00, 0x00,
    0x01, 0x00, 0x00, 0x00, 0x01, 0x00, 0x00, 0x00, 0xce, 0x00, 0x00, 0x00,
    0x10, 0x00, 0x00, 0x00, 0x2e, 0xed, 0xff, 0xff, 0x00, 0x00, 0x00, 0x01,
    0x18, 0x00, 0x00, 0x00, 0x28, 0x00, 0x00, 0x00, 0x48, 0x00, 0x00, 0x00,
    0x1a, 0x00, 0x00, 0x00, 0x00, 0x00, 0x00, 0x09, 0xd8, 0x00, 0x00, 0x00,
    0x04, 0x00, 0x00, 0x00, 0xff, 0xff, 0xff, 0xff, 0x01, 0x00, 0x00, 0x00,
    0xce, 0x00, 0x00, 0x00, 0x10, 0x00, 0x00, 0x00, 0x1c, 0xed, 0xff, 0xff,
    0x08, 0x00, 0x00, 0x00, 0x14, 0x00, 0x00, 0x00, 0x01, 0x00, 0x00, 0x00,
    0x8c, 0xff, 0xff, 0xff, 0xff, 0xff, 0xff, 0xff, 0x00, 0x00, 0x00, 0x00,
    0x01, 0x00, 0x00, 0x00, 0x5b, 0x2a, 0x50, 0x3e, 0x96, 0x00, 0x00, 0x00,
    0x73, 0x65, 0x71, 0x75, 0x65, 0x6e, 0x74, 0x69, 0x61, 0x6c, 0x5f, 0x31,
    0x2f, 0x62, 0x61, 0x74, 0x63, 0x68, 0x5f, 0x6e, 0x6f, 0x72, 0x6d, 0x61,
    0x6c, 0x69, 0x7a, 0x61, 0x74, 0x69, 0x6f, 0x6e, 0x5f, 0x31, 0x2f, 0x62,
    0x61, 0x74, 0x63, 0x68, 0x6e, 0x6f, 0x72, 0x6d, 0x2f, 0x6d, 0x75, 0x6c,
    0x5f, 0x31, 0x3b, 0x73, 0x65, 0x71, 0x75, 0x65, 0x6e, 0x74, 0x69, 0x61,
    0x6c, 0x5f, 0x31, 0x2f, 0x63, 0x6f, 0x6e, 0x76, 0x31, 0x64, 0x5f, 0x31,
    0x2f, 0x63, 0x6f, 0x6e, 0x76, 0x6f, 0x6c, 0x75, 0x74, 0x69, 0x6f, 0x6e,
    0x2f, 0x53, 0x71, 0x75, 0x65, 0x65, 0x7a, 0x65, 0x3b, 0x73, 0x65, 0x71,
    0x75, 0x65, 0x6e, 0x74, 0x69, 0x61, 0x6c, 0x5f, 0x31, 0x2f, 0x63, 0x6f,
    0x6e, 0x76, 0x31, 0x64, 0x5f, 0x31, 0x2f, 0x52, 0x65, 0x6c, 0x75, 0x3b,
    0x73, 0x65, 0x71, 0x75, 0x65, 0x6e, 0x74, 0x69, 0x61, 0x6c, 0x5f, 0x31,
    0x2f, 0x63, 0x6f, 0x6e, 0x76, 0x31, 0x64, 0x5f, 0x31, 0x2f, 0x42, 0x69,
    0x61, 0x73, 0x41, 0x64, 0x64, 0x3b, 0x00, 0x00, 0x04, 0x00, 0x00, 0x00,
    0x01, 0x00, 0x00, 0x00, 0x01, 0x00, 0x00, 0x00, 0xce, 0x00, 0x00, 0x00,
    0x10, 0x00, 0x00, 0x00, 0x36, 0xee, 0xff, 0xff, 0x00, 0x00, 0x00, 0x01,
    0x18, 0x00, 0x00, 0x00, 0x28, 0x00, 0x00, 0x00, 0x48, 0x00, 0x00, 0x00,
    0x19, 0x00, 0x00, 0x00, 0x00, 0x00, 0x00, 0x09, 0xc8, 0x00, 0x00, 0x00,
    0x04, 0x00, 0x00, 0x00, 0xff, 0xff, 0xff, 0xff, 0x01, 0x00, 0x00, 0x00,
    0xce, 0x00, 0x00, 0x00, 0x10, 0x00, 0x00, 0x00, 0x24, 0xee, 0xff, 0xff,
    0x08, 0x00, 0x00, 0x00, 0x14, 0x00, 0x00, 0x00, 0x01, 0x00, 0x00, 0x00,
    0x80, 0xff, 0xff, 0xff, 0xff, 0xff, 0xff, 0xff, 0x00, 0x00, 0x00, 0x00,
    0x01, 0x00, 0x00, 0x00, 0x1a, 0xa6, 0x46, 0x3e, 0x85, 0x00, 0x00, 0x00,
    0x73, 0x65, 0x71, 0x75, 0x65, 0x6e, 0x74, 0x69, 0x61, 0x6c, 0x5f, 0x31,
    0x2f, 0x63, 0x6f, 0x6e, 0x76, 0x31, 0x64, 0x5f, 0x31, 0x2f, 0x52, 0x65,
    0x6c, 0x75, 0x3b, 0x73, 0x65, 0x71, 0x75, 0x65, 0x6e, 0x74, 0x69, 0x61,
    0x6c, 0x5f, 0x31, 0x2f, 0x63, 0x6f, 0x6e, 0x76, 0x31, 0x64, 0x5f, 0x31,
    0x2f, 0x42, 0x69, 0x61, 0x73, 0x41, 0x64, 0x64, 0x3b, 0x73, 0x65, 0x71,
    0x75, 0x65, 0x6e, 0x74, 0x69, 0x61, 0x6c, 0x5f, 0x31, 0x2f, 0x63, 0x6f,
    0x6e, 0x76, 0x31, 0x64, 0x5f, 0x31, 0x2f, 0x63, 0x6f, 0x6e, 0x76, 0x6f,
    0x6c, 0x75, 0x74, 0x69, 0x6f, 0x6e, 0x2f, 0x53, 0x71, 0x75, 0x65, 0x65,
    0x7a, 0x65, 0x3b, 0x3b, 0x73, 0x65, 0x71, 0x75, 0x65, 0x6e, 0x74, 0x69,
    0x61, 0x6c, 0x5f, 0x31, 0x2f, 0x63, 0x6f, 0x6e, 0x76, 0x31, 0x64, 0x5f,
    0x31, 0x2f, 0x63, 0x6f, 0x6e, 0x76, 0x6f, 0x6c, 0x75, 0x74, 0x69, 0x6f,
    0x6e, 0x00, 0x00, 0x00, 0x04, 0x00, 0x00, 0x00, 0x01, 0x00, 0x00, 0x00,
    0x01, 0x00, 0x00, 0x00, 0xce, 0x00, 0x00, 0x00, 0x10, 0x00, 0x00, 0x00,
    0x2e, 0xef, 0xff, 0xff, 0x00, 0x00, 0x00, 0x01, 0x18, 0x00, 0x00, 0x00,
    0x28, 0x00, 0x00, 0x00, 0x48, 0x00, 0x00, 0x00, 0x18, 0x00, 0x00, 0x00,
    0x00, 0x00, 0x00, 0x09, 0x70, 0x00, 0x00, 0x00, 0x04, 0x00, 0x00, 0x00,
    0xff, 0xff, 0xff, 0xff, 0x01, 0x00, 0x00, 0x00, 0xce, 0x00, 0x00, 0x00,
    0x06, 0x00, 0x00, 0x00, 0x1c, 0xef, 0xff, 0xff, 0x08, 0x00, 0x00, 0x00,
    0x14, 0x00, 0x00, 0x00, 0x01, 0x00, 0x00, 0x00, 0x0b, 0x00, 0x00, 0x00,
    0x00, 0x00, 0x00, 0x00, 0x00, 0x00, 0x00, 0x00, 0x01, 0x00, 0x00, 0x00,
    0x88, 0x0f, 0x02, 0x3d, 0x2c, 0x00, 0x00, 0x00, 0x73, 0x65, 0x71, 0x75,
    0x65, 0x6e, 0x74, 0x69, 0x61, 0x6c, 0x5f, 0x31, 0x2f, 0x63, 0x6f, 0x6e,
    0x76, 0x31, 0x64, 0x5f, 0x31, 0x2f, 0x63, 0x6f, 0x6e, 0x76, 0x6f, 0x6c,
    0x75, 0x74, 0x69, 0x6f, 0x6e, 0x2f, 0x45, 0x78, 0x70, 0x61, 0x6e, 0x64,
    0x44, 0x69, 0x6d, 0x73, 0x00, 0x00, 0x00, 0x00, 0x04, 0x00, 0x00, 0x00,
    0x01, 0x00, 0x00, 0x00, 0x01, 0x00, 0x00, 0x00, 0xce, 0x00, 0x00, 0x00,
    0x06, 0x00, 0x00, 0x00, 0x22, 0xf0, 0xff, 0xff, 0x00, 0x00, 0x00, 0x01,
    0x14, 0x00, 0x00, 0x00, 0xe8, 0x00, 0x00, 0x00, 0x17, 0x00, 0x00, 0x00,
    0x00, 0x00, 0x00, 0x09, 0xf4, 0x00, 0x00, 0x00, 0xa4, 0xef, 0xff, 0xff,
    0x08, 0x00, 0x00, 0x00, 0x8c, 0x00, 0x00, 0x00, 0x10, 0x00, 0x00, 0x00,
    0x00, 0x00, 0x00, 0x00, 0x00, 0x00, 0x00, 0x00, 0x00, 0x00, 0x00, 0x00,
    0x00, 0x00, 0x00, 0x00, 0x00, 0x00, 0x00, 0x00, 0x00, 0x00, 0x00, 0x00,
    0x00, 0x00, 0x00, 0x00, 0x00, 0x00, 0x00, 0x00, 0x00, 0x00, 0x00, 0x00,
    0x00, 0x00, 0x00, 0x00, 0x00, 0x00, 0x00, 0x00, 0x00, 0x00, 0x00, 0x00,
    0x00, 0x00, 0x00, 0x00, 0x00, 0x00, 0x00, 0x00, 0x00, 0x00, 0x00, 0x00,
    0x00, 0x00, 0x00, 0x00, 0x00, 0x00, 0x00, 0x00, 0x00, 0x00, 0x00, 0x00,
    0x00, 0x00, 0x00, 0x00, 0x00, 0x00, 0x00, 0x00, 0x00, 0x00, 0x00, 0x00,
    0x00, 0x00, 0x00, 0x00, 0x00, 0x00, 0x00, 0x00, 0x00, 0x00, 0x00, 0x00,
    0x00, 0x00, 0x00, 0x00, 0x00, 0x00, 0x00, 0x00, 0x00, 0x00, 0x00, 0x00,
    0x00, 0x00, 0x00, 0x00, 0x00, 0x00, 0x00, 0x00, 0x00, 0x00, 0x00, 0x00,
    0x00, 0x00, 0x00, 0x00, 0x00, 0x00, 0x00, 0x00, 0x00, 0x00, 0x00, 0x00,
    0x10, 0x00, 0x00, 0x00, 0xfc, 0x3b, 0x36, 0x3b, 0xb8, 0x9f, 0xed, 0x3b,
    0x56, 0x4e, 0x76, 0x3b, 0x4e, 0x06, 0x3b, 0x3c, 0xda, 0xea, 0x47, 0x3b,
    0x22, 0x70, 0x62, 0x3b, 0xb6, 0x7d, 0x6e, 0x3b, 0x32, 0x20, 0x9a, 0x3b,
    0xce, 0x6e, 0x35, 0x3b, 0x50, 0x84, 0x15, 0x3b, 0xbb, 0x58, 0x19, 0x3b,
    0x77, 0xed, 0x6b, 0x3b, 0xb8, 0x6f, 0x70, 0x3b, 0xcc, 0x42, 0xb4, 0x3b,
    0x33, 0xef, 0x37, 0x3b, 0x2f, 0xd9, 0x53, 0x3b, 0x13, 0x00, 0x00, 0x00,
    0x74, 0x66, 0x6c, 0x2e, 0x70, 0x73, 0x65, 0x75, 0x64, 0x6f, 0x5f, 0x71,
    0x63, 0x6f, 0x6e, 0x73, 0x74, 0x31, 0x35, 0x00, 0x04, 0x00, 0x00, 0x00,
    0x10, 0x00, 0x00, 0x00, 0x01, 0x00, 0x00, 0x00, 0x05, 0x00, 0x00, 0x00,
    0x06, 0x00, 0x00, 0x00, 0x42, 0xf1, 0xff, 0xff, 0x00, 0x00, 0x00, 0x01,
    0x14, 0x00, 0x00, 0x00, 0xe4, 0x00, 0x00, 0x00, 0x16, 0x00, 0x00, 0x00,
    0x00, 0x00, 0x00, 0x02, 0xf0, 0x00, 0x00, 0x00, 0xc4, 0xf0, 0xff, 0xff,
    0x08, 0x00, 0x00, 0x00, 0x88, 0x00, 0x00, 0x00, 0x10, 0x00, 0x00, 0x00,
    0x00, 0x00, 0x00, 0x00, 0x00, 0x00, 0x00, 0x00, 0x00, 0x00, 0x00, 0x00,
    0x00, 0x00, 0x00, 0x00, 0x00, 0x00, 0x00, 0x00, 0x00, 0x00, 0x00, 0x00,
    0x00, 0x00, 0x00, 0x00, 0x00, 0x00, 0x00, 0x00, 0x00, 0x00, 0x00, 0x00,
    0x00, 0x00, 0x00, 0x00, 0x00, 0x00, 0x00, 0x00, 0x00, 0x00, 0x00, 0x00,
    0x00, 0x00, 0x00, 0x00, 0x00, 0x00, 0x00, 0x00, 0x00, 0x00, 0x00, 0x00,
